{
  "version": "1.0",
  "truncation": null,
  "padding": null,
  "added_tokens": [
    {
      "id": 0,
      "content": "<unk>",
      "single_word": false,
      "lstrip": false,
      "rstrip": false,
      "normalized": false,
      "special": true
    },
    {
      "id": 1,
      "content": "<s>",
      "single_word": false,
      "lstrip": false,
      "rstrip": false,
      "normalized": false,
      "special": true
    },
    {
      "id": 2,
      "content": "</s>",
      "single_word": false,
      "lstrip": false,
      "rstrip": false,
      "normalized": false,
      "special": true
    },
    {
      "id": 3,
      "content": "<pad>",
      "single_word": false,
      "lstrip": false,
      "rstrip": false,
      "normalized": false,
      "special": true
    }
  ],
  "normalizer": null,
  "pre_tokenizer": {
    "type": "Metaspace",
    "replacement": "▁",
    "prepend_scheme": "never",
    "split": false
  },
  "post_processor": {
    "type": "TemplateProcessing",
    "single": [
      {
        "SpecialToken": {
          "id": "<s>",
          "type_id": 0
        }
      },
      {
        "Sequence": {
          "id": "A",
          "type_id": 0
        }
      }
    ],
    "pair": [
      {
        "SpecialToken": {
          "id": "<s>",
          "type_id": 0
        }
      },
      {
        "Sequence": {
          "id": "A",
          "type_id": 0
        }
      },
      {
        "SpecialToken": {
          "id": "<s>",
          "type_id": 1
        }
      },
      {
        "Sequence": {
          "id": "B",
          "type_id": 1
        }
      }
    ],
    "special_tokens": {
      "<s>": {
        "id": "<s>",
        "ids": [
          1
        ],
        "tokens": [
          "<s>"
        ]
      }
    }
  },
  "decoder": {
    "type": "Sequence",
    "decoders": [
      {
        "type": "Replace",
        "pattern": {
          "String": "▁"
        },
        "content": " "
      },
      {
        "type": "ByteFallback"
      },
      {
        "type": "Fuse"
      }
    ]
  },
  "model": {
    "type": "Unigram",
    "unk_id": 0,
    "vocab": [
      [
        "<unk>",
        0.0
      ],
      [
        "<s>",
        0.0
      ],
      [
        "</s>",
        0.0
      ],
      [
        "<pad>",
        0.0
      ],
      [
        "<0x00>",
        0.0
      ],
      [
        "<0x01>",
        0.0
      ],
      [
        "<0x02>",
        0.0
      ],
      [
        "<0x03>",
        0.0
      ],
      [
        "<0x04>",
        0.0
      ],
      [
        "<0x05>",
        0.0
      ],
      [
        "<0x06>",
        0.0
      ],
      [
        "<0x07>",
        0.0
      ],
      [
        "<0x08>",
        0.0
      ],
      [
        "<0x09>",
        0.0
      ],
      [
        "<0x0A>",
        0.0
      ],
      [
        "<0x0B>",
        0.0
      ],
      [
        "<0x0C>",
        0.0
      ],
      [
        "<0x0D>",
        0.0
      ],
      [
        "<0x0E>",
        0.0
      ],
      [
        "<0x0F>",
        0.0
      ],
      [
        "<0x10>",
        0.0
      ],
      [
        "<0x11>",
        0.0
      ],
      [
        "<0x12>",
        0.0
      ],
      [
        "<0x13>",
        0.0
      ],
      [
        "<0x14>",
        0.0
      ],
      [
        "<0x15>",
        0.0
      ],
      [
        "<0x16>",
        0.0
      ],
      [
        "<0x17>",
        0.0
      ],
      [
        "<0x18>",
        0.0
      ],
      [
        "<0x19>",
        0.0
      ],
      [
        "<0x1A>",
        0.0
      ],
      [
        "<0x1B>",
        0.0
      ],
      [
        "<0x1C>",
        0.0
      ],
      [
        "<0x1D>",
        0.0
      ],
      [
        "<0x1E>",
        0.0
      ],
      [
        "<0x1F>",
        0.0
      ],
      [
        "<0x20>",
        0.0
      ],
      [
        "<0x21>",
        0.0
      ],
      [
        "<0x22>",
        0.0
      ],
      [
        "<0x23>",
        0.0
      ],
      [
        "<0x24>",
        0.0
      ],
      [
        "<0x25>",
        0.0
      ],
      [
        "<0x26>",
        0.0
      ],
      [
        "<0x27>",
        0.0
      ],
      [
        "<0x28>",
        0.0
      ],
      [
        "<0x29>",
        0.0
      ],
      [
        "<0x2A>",
        0.0
      ],
      [
        "<0x2B>",
        0.0
      ],
      [
        "<0x2C>",
        0.0
      ],
      [
        "<0x2D>",
        0.0
      ],
      [
        "<0x2E>",
        0.0
      ],
      [
        "<0x2F>",
        0.0
      ],
      [
        "<0x30>",
        0.0
      ],
      [
        "<0x31>",
        0.0
      ],
      [
        "<0x32>",
        0.0
      ],
      [
        "<0x33>",
        0.0
      ],
      [
        "<0x34>",
        0.0
      ],
      [
        "<0x35>",
        0.0
      ],
      [
        "<0x36>",
        0.0
      ],
      [
        "<0x37>",
        0.0
      ],
      [
        "<0x38>",
        0.0
      ],
      [
        "<0x39>",
        0.0
      ],
      [
        "<0x3A>",
        0.0
      ],
      [
        "<0x3B>",
        0.0
      ],
      [
        "<0x3C>",
        0.0
      ],
      [
        "<0x3D>",
        0.0
      ],
      [
        "<0x3E>",
        0.0
      ],
      [
        "<0x3F>",
        0.0
      ],
      [
        "<0x40>",
        0.0
      ],
      [
        "<0x41>",
        0.0
      ],
      [
        "<0x42>",
        0.0
      ],
      [
        "<0x43>",
        0.0
      ],
      [
        "<0x44>",
        0.0
      ],
      [
        "<0x45>",
        0.0
      ],
      [
        "<0x46>",
        0.0
      ],
      [
        "<0x47>",
        0.0
      ],
      [
        "<0x48>",
        0.0
      ],
      [
        "<0x49>",
        0.0
      ],
      [
        "<0x4A>",
        0.0
      ],
      [
        "<0x4B>",
        0.0
      ],
      [
        "<0x4C>",
        0.0
      ],
      [
        "<0x4D>",
        0.0
      ],
      [
        "<0x4E>",
        0.0
      ],
      [
        "<0x4F>",
        0.0
      ],
      [
        "<0x50>",
        0.0
      ],
      [
        "<0x51>",
        0.0
      ],
      [
        "<0x52>",
        0.0
      ],
      [
        "<0x53>",
        0.0
      ],
      [
        "<0x54>",
        0.0
      ],
      [
        "<0x55>",
        0.0
      ],
      [
        "<0x56>",
        0.0
      ],
      [
        "<0x57>",
        0.0
      ],
      [
        "<0x58>",
        0.0
      ],
      [
        "<0x59>",
        0.0
      ],
      [
        "<0x5A>",
        0.0
      ],
      [
        "<0x5B>",
        0.0
      ],
      [
        "<0x5C>",
        0.0
      ],
      [
        "<0x5D>",
        0.0
      ],
      [
        "<0x5E>",
        0.0
      ],
      [
        "<0x5F>",
        0.0
      ],
      [
        "<0x60>",
        0.0
      ],
      [
        "<0x61>",
        0.0
      ],
      [
        "<0x62>",
        0.0
      ],
      [
        "<0x63>",
        0.0
      ],
      [
        "<0x64>",
        0.0
      ],
      [
        "<0x65>",
        0.0
      ],
      [
        "<0x66>",
        0.0
      ],
      [
        "<0x67>",
        0.0
      ],
      [
        "<0x68>",
        0.0
      ],
      [
        "<0x69>",
        0.0
      ],
      [
        "<0x6A>",
        0.0
      ],
      [
        "<0x6B>",
        0.0
      ],
      [
        "<0x6C>",
        0.0
      ],
      [
        "<0x6D>",
        0.0
      ],
      [
        "<0x6E>",
        0.0
      ],
      [
        "<0x6F>",
        0.0
      ],
      [
        "<0x70>",
        0.0
      ],
      [
        "<0x71>",
        0.0
      ],
      [
        "<0x72>",
        0.0
      ],
      [
        "<0x73>",
        0.0
      ],
      [
        "<0x74>",
        0.0
      ],
      [
        "<0x75>",
        0.0
      ],
      [
        "<0x76>",
        0.0
      ],
      [
        "<0x77>",
        0.0
      ],
      [
        "<0x78>",
        0.0
      ],
      [
        "<0x79>",
        0.0
      ],
      [
        "<0x7A>",
        0.0
      ],
      [
        "<0x7B>",
        0.0
      ],
      [
        "<0x7C>",
        0.0
      ],
      [
        "<0x7D>",
        0.0
      ],
      [
        "<0x7E>",
        0.0
      ],
      [
        "<0x7F>",
        0.0
      ],
      [
        "<0x80>",
        0.0
      ],
      [
        "<0x81>",
        0.0
      ],
      [
        "<0x82>",
        0.0
      ],
      [
        "<0x83>",
        0.0
      ],
      [
        "<0x84>",
        0.0
      ],
      [
        "<0x85>",
        0.0
      ],
      [
        "<0x86>",
        0.0
      ],
      [
        "<0x87>",
        0.0
      ],
      [
        "<0x88>",
        0.0
      ],
      [
        "<0x89>",
        0.0
      ],
      [
        "<0x8A>",
        0.0
      ],
      [
        "<0x8B>",
        0.0
      ],
      [
        "<0x8C>",
        0.0
      ],
      [
        "<0x8D>",
        0.0
      ],
      [
        "<0x8E>",
        0.0
      ],
      [
        "<0x8F>",
        0.0
      ],
      [
        "<0x90>",
        0.0
      ],
      [
        "<0x91>",
        0.0
      ],
      [
        "<0x92>",
        0.0
      ],
      [
        "<0x93>",
        0.0
      ],
      [
        "<0x94>",
        0.0
      ],
      [
        "<0x95>",
        0.0
      ],
      [
        "<0x96>",
        0.0
      ],
      [
        "<0x97>",
        0.0
      ],
      [
        "<0x98>",
        0.0
      ],
      [
        "<0x99>",
        0.0
      ],
      [
        "<0x9A>",
        0.0
      ],
      [
        "<0x9B>",
        0.0
      ],
      [
        "<0x9C>",
        0.0
      ],
      [
        "<0x9D>",
        0.0
      ],
      [
        "<0x9E>",
        0.0
      ],
      [
        "<0x9F>",
        0.0
      ],
      [
        "<0xA0>",
        0.0
      ],
      [
        "<0xA1>",
        0.0
      ],
      [
        "<0xA2>",
        0.0
      ],
      [
        "<0xA3>",
        0.0
      ],
      [
        "<0xA4>",
        0.0
      ],
      [
        "<0xA5>",
        0.0
      ],
      [
        "<0xA6>",
        0.0
      ],
      [
        "<0xA7>",
        0.0
      ],
      [
        "<0xA8>",
        0.0
      ],
      [
        "<0xA9>",
        0.0
      ],
      [
        "<0xAA>",
        0.0
      ],
      [
        "<0xAB>",
        0.0
      ],
      [
        "<0xAC>",
        0.0
      ],
      [
        "<0xAD>",
        0.0
      ],
      [
        "<0xAE>",
        0.0
      ],
      [
        "<0xAF>",
        0.0
      ],
      [
        "<0xB0>",
        0.0
      ],
      [
        "<0xB1>",
        0.0
      ],
      [
        "<0xB2>",
        0.0
      ],
      [
        "<0xB3>",
        0.0
      ],
      [
        "<0xB4>",
        0.0
      ],
      [
        "<0xB5>",
        0.0
      ],
      [
        "<0xB6>",
        0.0
      ],
      [
        "<0xB7>",
        0.0
      ],
      [
        "<0xB8>",
        0.0
      ],
      [
        "<0xB9>",
        0.0
      ],
      [
        "<0xBA>",
        0.0
      ],
      [
        "<0xBB>",
        0.0
      ],
      [
        "<0xBC>",
        0.0
      ],
      [
        "<0xBD>",
        0.0
      ],
      [
        "<0xBE>",
        0.0
      ],
      [
        "<0xBF>",
        0.0
      ],
      [
        "<0xC0>",
        0.0
      ],
      [
        "<0xC1>",
        0.0
      ],
      [
        "<0xC2>",
        0.0
      ],
      [
        "<0xC3>",
        0.0
      ],
      [
        "<0xC4>",
        0.0
      ],
      [
        "<0xC5>",
        0.0
      ],
      [
        "<0xC6>",
        0.0
      ],
      [
        "<0xC7>",
        0.0
      ],
      [
        "<0xC8>",
        0.0
      ],
      [
        "<0xC9>",
        0.0
      ],
      [
        "<0xCA>",
        0.0
      ],
      [
        "<0xCB>",
        0.0
      ],
      [
        "<0xCC>",
        0.0
      ],
      [
        "<0xCD>",
        0.0
      ],
      [
        "<0xCE>",
        0.0
      ],
      [
        "<0xCF>",
        0.0
      ],
      [
        "<0xD0>",
        0.0
      ],
      [
        "<0xD1>",
        0.0
      ],
      [
        "<0xD2>",
        0.0
      ],
      [
        "<0xD3>",
        0.0
      ],
      [
        "<0xD4>",
        0.0
      ],
      [
        "<0xD5>",
        0.0
      ],
      [
        "<0xD6>",
        0.0
      ],
      [
        "<0xD7>",
        0.0
      ],
      [
        "<0xD8>",
        0.0
      ],
      [
        "<0xD9>",
        0.0
      ],
      [
        "<0xDA>",
        0.0
      ],
      [
        "<0xDB>",
        0.0
      ],
      [
        "<0xDC>",
        0.0
      ],
      [
        "<0xDD>",
        0.0
      ],
      [
        "<0xDE>",
        0.0
      ],
      [
        "<0xDF>",
        0.0
      ],
      [
        "<0xE0>",
        0.0
      ],
      [
        "<0xE1>",
        0.0
      ],
      [
        "<0xE2>",
        0.0
      ],
      [
        "<0xE3>",
        0.0
      ],
      [
        "<0xE4>",
        0.0
      ],
      [
        "<0xE5>",
        0.0
      ],
      [
        "<0xE6>",
        0.0
      ],
      [
        "<0xE7>",
        0.0
      ],
      [
        "<0xE8>",
        0.0
      ],
      [
        "<0xE9>",
        0.0
      ],
      [
        "<0xEA>",
        0.0
      ],
      [
        "<0xEB>",
        0.0
      ],
      [
        "<0xEC>",
        0.0
      ],
      [
        "<0xED>",
        0.0
      ],
      [
        "<0xEE>",
        0.0
      ],
      [
        "<0xEF>",
        0.0
      ],
      [
        "<0xF0>",
        0.0
      ],
      [
        "<0xF1>",
        0.0
      ],
      [
        "<0xF2>",
        0.0
      ],
      [
        "<0xF3>",
        0.0
      ],
      [
        "<0xF4>",
        0.0
      ],
      [
        "<0xF5>",
        0.0
      ],
      [
        "<0xF6>",
        0.0
      ],
      [
        "<0xF7>",
        0.0
      ],
      [
        "<0xF8>",
        0.0
      ],
      [
        "<0xF9>",
        0.0
      ],
      [
        "<0xFA>",
        0.0
      ],
      [
        "<0xFB>",
        0.0
      ],
      [
        "<0xFC>",
        0.0
      ],
      [
        "<0xFD>",
        0.0
      ],
      [
        "<0xFE>",
        0.0
      ],
      [
        "<0xFF>",
        0.0
      ],
      [
        "▁",
        -2.884568691253662
      ],
      [
        "s",
        -3.2484734058380127
      ],
      [
        ",",
        -3.293511152267456
      ],
      [
        ".",
        -3.3522086143493652
      ],
      [
        "'",
        -3.691579580307007
      ],
      [
        "▁the",
        -3.741624355316162
      ],
      [
        "▁to",
        -4.045279026031494
      ],
      [
        "▁a",
        -4.066256999969482
      ],
      [
        "▁I",
        -4.0755815505981445
      ],
      [
        "▁and",
        -4.241729259490967
      ],
      [
        "▁you",
        -4.310611248016357
      ],
      [
        "▁that",
        -4.342050075531006
      ],
      [
        "▁of",
        -4.390951633453369
      ],
      [
        "ing",
        -4.502481937408447
      ],
      [
        "t",
        -4.5397047996521
      ],
      [
        "▁it",
        -4.542901515960693
      ],
      [
        "▁in",
        -4.638480186462402
      ],
      [
        "▁is",
        -4.943281650543213
      ],
      [
        "ed",
        -4.943328857421875
      ],
      [
        "▁be",
        -5.043965816497803
      ],
      [
        "re",
        -5.14577054977417
      ],
      [
        "▁we",
        -5.182724952697754
      ],
      [
        "▁like",
        -5.221669673919678
      ],
      [
        "m",
        -5.342883110046387
      ],
      [
        "▁for",
        -5.343321800231934
      ],
      [
        "▁this",
        -5.363556861877441
      ],
      [
        "▁was",
        -5.375865936279297
      ],
      [
        "▁And",
        -5.445766925811768
      ],
      [
        "▁on",
        -5.466545581817627
      ],
      [
        "▁know",
        -5.47384786605835
      ],
      [
        "▁have",
        -5.571041107177734
      ],
      [
        "▁with",
        -5.58411169052124
      ],
      [
        "?",
        -5.620762348175049
      ],
      [
        "▁they",
        -5.640599727630615
      ],
      [
        "▁so",
        -5.654904842376709
      ],
      [
        "er",
        -5.673520088195801
      ],
      [
        "▁just",
        -5.677209377288818
      ],
      [
        "▁what",
        -5.72856330871582
      ],
      [
        "▁So",
        -5.789290904998779
      ],
      [
        "▁do",
        -5.848136901855469
      ],
      [
        "▁not",
        -5.849341869354248
      ],
      [
        "▁some",
        -5.853160858154297
      ],
      [
        "▁he",
        -5.866663932800293
      ],
      [
        "▁can",
        -5.883192539215088
      ],
      [
        "▁are",
        -5.899616241455078
      ],
      [
        "▁but",
        -5.9202561378479
      ],
      [
        "n",
        -5.930228233337402
      ],
      [
        "d",
        -5.950862407684326
      ],
      [
        "▁me",
        -5.984400272369385
      ],
      [
        "▁at",
        -5.9927825927734375
      ],
      [
        "▁there",
        -5.994783401489258
      ],
      [
        "▁or",
        -5.998849391937256
      ],
      [
        "▁your",
        -6.006519317626953
      ],
      [
        "▁my",
        -6.017693996429443
      ],
      [
        "ve",
        -6.01771354675293
      ],
      [
        "▁about",
        -6.023505687713623
      ],
      [
        "0",
        -6.0314812660217285
      ],
      [
        "▁all",
        -6.051407814025879
      ],
      [
        "▁get",
        -6.057258605957031
      ],
      [
        "▁think",
        -6.073665142059326
      ],
      [
        "cause",
        -6.094570159912109
      ],
      [
        "▁out",
        -6.11068058013916
      ],
      [
        "▁one",
        -6.11893367767334
      ],
      [
        "ly",
        -6.123717784881592
      ],
      [
        "▁p",
        -6.127171993255615
      ],
      [
        "▁going",
        -6.136852264404297
      ],
      [
        "al",
        -6.18625545501709
      ],
      [
        "y",
        -6.193512916564941
      ],
      [
        "▁if",
        -6.2064433097839355
      ],
      [
        "▁as",
        -6.226637363433838
      ],
      [
        "▁up",
        -6.236567974090576
      ],
      [
        "▁c",
        -6.243194103240967
      ],
      [
        "▁don",
        -6.256308078765869
      ],
      [
        "▁It",
        -6.295454502105713
      ],
      [
        "r",
        -6.328939437866211
      ],
      [
        "ll",
        -6.33448600769043
      ],
      [
        "e",
        -6.3421173095703125
      ],
      [
        "-",
        -6.345717430114746
      ],
      [
        "▁re",
        -6.3473334312438965
      ],
      [
        "▁thing",
        -6.348674774169922
      ],
      [
        "▁from",
        -6.352749824523926
      ],
      [
        "1",
        -6.3541717529296875
      ],
      [
        "really",
        -6.389099597930908
      ],
      [
        "▁You",
        -6.401214599609375
      ],
      [
        "thing",
        -6.417024612426758
      ],
      [
        "▁right",
        -6.424452304840088
      ],
      [
        "people",
        -6.425020217895508
      ],
      [
        "▁want",
        -6.425827980041504
      ],
      [
        "▁when",
        -6.43815803527832
      ],
      [
        "ally",
        -6.453556537628174
      ],
      [
        "▁go",
        -6.476170063018799
      ],
      [
        "▁then",
        -6.486055850982666
      ],
      [
        "▁But",
        -6.499558448791504
      ],
      [
        "▁an",
        -6.500698566436768
      ],
      [
        "▁no",
        -6.534000873565674
      ],
      [
        "▁had",
        -6.5463056564331055
      ],
      [
        "in",
        -6.5568647384643555
      ],
      [
        "▁Yeah",
        -6.568700790405273
      ],
      [
        "▁would",
        -6.5701375007629395
      ],
      [
        "▁say",
        -6.590750694274902
      ],
      [
        "▁them",
        -6.595056056976318
      ],
      [
        "▁time",
        -6.602702617645264
      ],
      [
        "a",
        -6.629042148590088
      ],
      [
        "tion",
        -6.633601665496826
      ],
      [
        "▁The",
        -6.638084411621094
      ],
      [
        "2",
        -6.6401753425598145
      ],
      [
        "▁more",
        -6.643313884735107
      ],
      [
        "▁how",
        -6.651402950286865
      ],
      [
        "▁see",
        -6.664009094238281
      ],
      [
        "▁got",
        -6.672194957733154
      ],
      [
        "▁our",
        -6.6888508796691895
      ],
      [
        "es",
        -6.693766117095947
      ],
      [
        "▁now",
        -6.706151962280273
      ],
      [
        "▁who",
        -6.730064392089844
      ],
      [
        "▁We",
        -6.735322952270508
      ],
      [
        "▁here",
        -6.757986545562744
      ],
      [
        "▁his",
        -6.763290882110596
      ],
      [
        "▁will",
        -6.763925075531006
      ],
      [
        "▁by",
        -6.77561092376709
      ],
      [
        "▁were",
        -6.781393527984619
      ],
      [
        "▁every",
        -6.806923866271973
      ],
      [
        "▁kind",
        -6.819945812225342
      ],
      [
        "▁back",
        -6.8263397216796875
      ],
      [
        "▁A",
        -6.831277370452881
      ],
      [
        "▁look",
        -6.834610939025879
      ],
      [
        "▁been",
        -6.865054607391357
      ],
      [
        "▁their",
        -6.865737438201904
      ],
      [
        "▁very",
        -6.8663811683654785
      ],
      [
        "▁which",
        -6.8790283203125
      ],
      [
        "▁That",
        -6.8807878494262695
      ],
      [
        "▁into",
        -6.887390613555908
      ],
      [
        "▁where",
        -6.889959335327148
      ],
      [
        "▁has",
        -6.893083095550537
      ],
      [
        "o",
        -6.901517868041992
      ],
      [
        "▁way",
        -6.914261341094971
      ],
      [
        "▁good",
        -6.918059349060059
      ],
      [
        "▁she",
        -6.91853141784668
      ],
      [
        "▁other",
        -6.925738334655762
      ],
      [
        "▁lot",
        -6.9355573654174805
      ],
      [
        "▁mean",
        -6.942234992980957
      ],
      [
        "▁work",
        -6.9438157081604
      ],
      [
        "p",
        -6.944849967956543
      ],
      [
        "▁e",
        -6.95320987701416
      ],
      [
        "▁these",
        -6.957985877990723
      ],
      [
        "▁de",
        -6.967844486236572
      ],
      [
        "i",
        -6.985270977020264
      ],
      [
        "▁i",
        -6.990671634674072
      ],
      [
        "▁yeah",
        -6.996245384216309
      ],
      [
        "▁over",
        -6.997771263122559
      ],
      [
        "▁us",
        -7.0103960037231445
      ],
      [
        "le",
        -7.013932704925537
      ],
      [
        "▁him",
        -7.016696929931641
      ],
      [
        "▁talk",
        -7.034051895141602
      ],
      [
        "ers",
        -7.039214134216309
      ],
      [
        "▁He",
        -7.044933319091797
      ],
      [
        "little",
        -7.05172872543335
      ],
      [
        "▁well",
        -7.058437347412109
      ],
      [
        "▁pr",
        -7.066596031188965
      ],
      [
        "▁even",
        -7.093531608581543
      ],
      [
        "ion",
        -7.095380783081055
      ],
      [
        "▁could",
        -7.097424030303955
      ],
      [
        "▁make",
        -7.106647968292236
      ],
      [
        "▁need",
        -7.112405300140381
      ],
      [
        "▁those",
        -7.135005950927734
      ],
      [
        "▁actu",
        -7.140950679779053
      ],
      [
        "▁said",
        -7.144470691680908
      ],
      [
        "▁start",
        -7.147336483001709
      ],
      [
        "▁t",
        -7.153529167175293
      ],
      [
        "l",
        -7.156661510467529
      ],
      [
        "▁her",
        -7.170865535736084
      ],
      [
        "▁con",
        -7.171987533569336
      ],
      [
        "ation",
        -7.1775288581848145
      ],
      [
        "▁did",
        -7.179727077484131
      ],
      [
        "▁also",
        -7.182616233825684
      ],
      [
        "▁two",
        -7.185066223144531
      ],
      [
        "▁down",
        -7.191295623779297
      ],
      [
        "▁much",
        -7.212818145751953
      ],
      [
        "5",
        -7.213355541229248
      ],
      [
        "▁They",
        -7.230929851531982
      ],
      [
        "en",
        -7.234388828277588
      ],
      [
        "c",
        -7.24249267578125
      ],
      [
        "▁feel",
        -7.249005317687988
      ],
      [
        "ting",
        -7.255661487579346
      ],
      [
        "▁first",
        -7.2672271728515625
      ],
      [
        "▁C",
        -7.270016193389893
      ],
      [
        "though",
        -7.2734270095825195
      ],
      [
        "▁S",
        -7.279673099517822
      ],
      [
        "▁any",
        -7.285599231719971
      ],
      [
        "or",
        -7.297698020935059
      ],
      [
        "on",
        -7.302798748016357
      ],
      [
        "3",
        -7.310871124267578
      ],
      [
        "ment",
        -7.319054126739502
      ],
      [
        "▁let",
        -7.325043201446533
      ],
      [
        "g",
        -7.329464435577393
      ],
      [
        "▁take",
        -7.329853057861328
      ],
      [
        "one",
        -7.338484764099121
      ],
      [
        "an",
        -7.363990306854248
      ],
      [
        "il",
        -7.365907192230225
      ],
      [
        "▁part",
        -7.373332977294922
      ],
      [
        "rent",
        -7.378327369689941
      ],
      [
        "hrough",
        -7.378621578216553
      ],
      [
        "▁play",
        -7.383774280548096
      ],
      [
        "▁diffe",
        -7.385295867919922
      ],
      [
        "▁love",
        -7.386297702789307
      ],
      [
        "▁com",
        -7.391439437866211
      ],
      [
        "th",
        -7.3933281898498535
      ],
      [
        "▁show",
        -7.403681755065918
      ],
      [
        "▁come",
        -7.410576343536377
      ],
      [
        "▁than",
        -7.415188312530518
      ],
      [
        "▁bit",
        -7.420681953430176
      ],
      [
        "▁put",
        -7.427697658538818
      ],
      [
        "ra",
        -7.429073333740234
      ],
      [
        "ness",
        -7.4318695068359375
      ],
      [
        "▁doing",
        -7.437935829162598
      ],
      [
        "▁This",
        -7.442959308624268
      ],
      [
        "▁off",
        -7.451347351074219
      ],
      [
        "ity",
        -7.457302570343018
      ],
      [
        "▁What",
        -7.463436603546143
      ],
      [
        "▁life",
        -7.4657464027404785
      ],
      [
        "w",
        -7.471033096313477
      ],
      [
        "▁Oh",
        -7.478610992431641
      ],
      [
        "▁great",
        -7.481228351593018
      ],
      [
        "ever",
        -7.486627578735352
      ],
      [
        "u",
        -7.487160682678223
      ],
      [
        "happen",
        -7.495415210723877
      ],
      [
        "ic",
        -7.495570182800293
      ],
      [
        "ar",
        -7.49574613571167
      ],
      [
        "4",
        -7.497114658355713
      ],
      [
        "▁day",
        -7.501342296600342
      ],
      [
        "ro",
        -7.528869152069092
      ],
      [
        "▁st",
        -7.530606269836426
      ],
      [
        "▁only",
        -7.533508777618408
      ],
      [
        "ate",
        -7.534730434417725
      ],
      [
        "▁didn",
        -7.55030632019043
      ],
      [
        "▁still",
        -7.555561542510986
      ],
      [
        "able",
        -7.555562973022461
      ],
      [
        "▁F",
        -7.555634498596191
      ],
      [
        "▁P",
        -7.562912940979004
      ],
      [
        "▁un",
        -7.567101955413818
      ],
      [
        "▁under",
        -7.569869041442871
      ],
      [
        "▁No",
        -7.576674461364746
      ],
      [
        "9",
        -7.579963684082031
      ],
      [
        "te",
        -7.58042049407959
      ],
      [
        "▁being",
        -7.581863880157471
      ],
      [
        "ch",
        -7.591626167297363
      ],
      [
        "▁Well",
        -7.5994791984558105
      ],
      [
        "h",
        -7.601132392883301
      ],
      [
        "ry",
        -7.60433292388916
      ],
      [
        "▁inter",
        -7.609300136566162
      ],
      [
        "should",
        -7.609492301940918
      ],
      [
        "around",
        -7.611624717712402
      ],
      [
        "▁man",
        -7.616955757141113
      ],
      [
        "b",
        -7.618578910827637
      ],
      [
        "ur",
        -7.6237335205078125
      ],
      [
        "▁new",
        -7.624754905700684
      ],
      [
        "▁years",
        -7.627285957336426
      ],
      [
        "el",
        -7.629648685455322
      ],
      [
        "▁again",
        -7.630054950714111
      ],
      [
        "k",
        -7.630280494689941
      ],
      [
        "▁point",
        -7.633115291595459
      ],
      [
        "▁E",
        -7.6337409019470215
      ],
      [
        "▁f",
        -7.637404441833496
      ],
      [
        "▁too",
        -7.642826557159424
      ],
      [
        "▁give",
        -7.6462554931640625
      ],
      [
        "▁God",
        -7.647794723510742
      ],
      [
        "▁help",
        -7.6489458084106445
      ],
      [
        "▁why",
        -7.651645660400391
      ],
      [
        "▁tell",
        -7.654996871948242
      ],
      [
        "▁big",
        -7.660550117492676
      ],
      [
        "▁There",
        -7.66077184677124
      ],
      [
        "ent",
        -7.662092208862305
      ],
      [
        "before",
        -7.66905403137207
      ],
      [
        "ne",
        -7.6692681312561035
      ],
      [
        "person",
        -7.68609094619751
      ],
      [
        "always",
        -7.697056770324707
      ],
      [
        "▁gonna",
        -7.708845138549805
      ],
      [
        "ke",
        -7.714349746704102
      ],
      [
        "body",
        -7.715152740478516
      ],
      [
        "▁If",
        -7.717781066894531
      ],
      [
        "▁Be",
        -7.722033500671387
      ],
      [
        "▁three",
        -7.726672172546387
      ],
      [
        "la",
        -7.727085113525391
      ],
      [
        "▁find",
        -7.7324018478393555
      ],
      [
        "6",
        -7.739603042602539
      ],
      [
        "▁B",
        -7.7404375076293945
      ],
      [
        "▁many",
        -7.741635322570801
      ],
      [
        "▁year",
        -7.7457594871521
      ],
      [
        "8",
        -7.748380184173584
      ],
      [
        "▁same",
        -7.74919319152832
      ],
      [
        "▁most",
        -7.749341011047363
      ],
      [
        "ta",
        -7.76569128036499
      ],
      [
        "▁oh",
        -7.765693664550781
      ],
      [
        "est",
        -7.769061088562012
      ],
      [
        "▁Now",
        -7.769343376159668
      ],
      [
        "▁after",
        -7.7787652015686035
      ],
      [
        "▁last",
        -7.78427791595459
      ],
      [
        "▁maybe",
        -7.787981033325195
      ],
      [
        "▁b",
        -7.79763126373291
      ],
      [
        "▁never",
        -7.800626277923584
      ],
      [
        "na",
        -7.806248188018799
      ],
      [
        "▁might",
        -7.814441680908203
      ],
      [
        "op",
        -7.823919773101807
      ],
      [
        "it",
        -7.825128555297852
      ],
      [
        "se",
        -7.825497150421143
      ],
      [
        "▁end",
        -7.827725887298584
      ],
      [
        "▁In",
        -7.8292555809021
      ],
      [
        "li",
        -7.834815502166748
      ],
      [
        "▁use",
        -7.842201232910156
      ],
      [
        "x",
        -7.843822956085205
      ],
      [
        "▁Like",
        -7.845688343048096
      ],
      [
        "▁long",
        -7.8490400314331055
      ],
      [
        "▁co",
        -7.849045753479004
      ],
      [
        "▁stuff",
        -7.85164213180542
      ],
      [
        "▁dis",
        -7.856433868408203
      ],
      [
        "ol",
        -7.860621929168701
      ],
      [
        "▁sure",
        -7.8607025146484375
      ],
      [
        "ce",
        -7.86693000793457
      ],
      [
        "obably",
        -7.869808673858643
      ],
      [
        "▁world",
        -7.871005535125732
      ],
      [
        "7",
        -7.8722758293151855
      ],
      [
        "nother",
        -7.874476909637451
      ],
      [
        "▁does",
        -7.886646270751953
      ],
      [
        "ri",
        -7.894267559051514
      ],
      [
        "▁call",
        -7.897050857543945
      ],
      [
        "▁real",
        -7.904669761657715
      ],
      [
        "member",
        -7.9059062004089355
      ],
      [
        "us",
        -7.914706707000732
      ],
      [
        "▁sort",
        -7.920995712280273
      ],
      [
        "▁place",
        -7.921472072601318
      ],
      [
        "lo",
        -7.925868988037109
      ],
      [
        "age",
        -7.932684421539307
      ],
      [
        "▁own",
        -7.936575889587402
      ],
      [
        "▁imp",
        -7.9380202293396
      ],
      [
        "▁made",
        -7.9458794593811035
      ],
      [
        "id",
        -7.946288585662842
      ],
      [
        "is",
        -7.946658134460449
      ],
      [
        "▁cha",
        -7.948122501373291
      ],
      [
        "et",
        -7.9484333992004395
      ],
      [
        "▁next",
        -7.948547840118408
      ],
      [
        "ence",
        -7.951374530792236
      ],
      [
        "▁keep",
        -7.95743989944458
      ],
      [
        "f",
        -7.95897102355957
      ],
      [
        "▁T",
        -7.959143161773682
      ],
      [
        "ck",
        -7.959611892700195
      ],
      [
        "listen",
        -7.962512493133545
      ],
      [
        "▁g",
        -7.97217321395874
      ],
      [
        "▁ques",
        -7.983057498931885
      ],
      [
        "▁doesn",
        -7.986578941345215
      ],
      [
        "de",
        -7.993881702423096
      ],
      [
        "tive",
        -7.995202541351318
      ],
      [
        "▁Okay",
        -7.995222091674805
      ],
      [
        "▁okay",
        -8.001017570495605
      ],
      [
        "to",
        -8.010042190551758
      ],
      [
        "ma",
        -8.011226654052734
      ],
      [
        "▁y",
        -8.014019966125488
      ],
      [
        "▁done",
        -8.016657829284668
      ],
      [
        "▁try",
        -8.017557144165039
      ],
      [
        "▁game",
        -8.023670196533203
      ],
      [
        "▁G",
        -8.030261039733887
      ],
      [
        "better",
        -8.031174659729004
      ],
      [
        "▁guys",
        -8.04036808013916
      ],
      [
        "▁di",
        -8.04699993133545
      ],
      [
        "pretty",
        -8.05696964263916
      ],
      [
        "▁went",
        -8.064704895019531
      ],
      [
        "ful",
        -8.066405296325684
      ],
      [
        "ir",
        -8.071381568908691
      ],
      [
        "▁watch",
        -8.072752952575684
      ],
      [
        "number",
        -8.073490142822266
      ],
      [
        "odcast",
        -8.074795722961426
      ],
      [
        "out",
        -8.078509330749512
      ],
      [
        "▁today",
        -8.080411911010742
      ],
      [
        "▁week",
        -8.081343650817871
      ],
      [
        "tions",
        -8.083463668823242
      ],
      [
        "▁ma",
        -8.090441703796387
      ],
      [
        "ti",
        -8.09251880645752
      ],
      [
        "▁exper",
        -8.099031448364258
      ],
      [
        "friend",
        -8.099273681640625
      ],
      [
        "A",
        -8.10132122039795
      ],
      [
        "▁She",
        -8.101981163024902
      ],
      [
        "▁whole",
        -8.10409927368164
      ],
      [
        "S",
        -8.111672401428223
      ],
      [
        "ter",
        -8.114810943603516
      ],
      [
        "stand",
        -8.123491287231445
      ],
      [
        "▁away",
        -8.123980522155762
      ],
      [
        "▁hard",
        -8.126935005187988
      ],
      [
        "course",
        -8.133652687072754
      ],
      [
        "▁high",
        -8.150348663330078
      ],
      [
        "ru",
        -8.150856971740723
      ],
      [
        "▁home",
        -8.152706146240234
      ],
      [
        "▁All",
        -8.155635833740234
      ],
      [
        "▁busi",
        -8.156524658203125
      ],
      [
        "as",
        -8.157022476196289
      ],
      [
        "▁learn",
        -8.159526824951172
      ],
      [
        "v",
        -8.160807609558105
      ],
      [
        "▁able",
        -8.165253639221191
      ],
      [
        "ia",
        -8.166909217834473
      ],
      [
        "ary",
        -8.167830467224121
      ],
      [
        "▁M",
        -8.171135902404785
      ],
      [
        "▁best",
        -8.172327041625977
      ],
      [
        "▁team",
        -8.175614356994629
      ],
      [
        "ble",
        -8.176185607910156
      ],
      [
        "▁men",
        -8.177753448486328
      ],
      [
        "▁came",
        -8.179851531982422
      ],
      [
        "ad",
        -8.181218147277832
      ],
      [
        "mo",
        -8.182390213012695
      ],
      [
        "change",
        -8.187325477600098
      ],
      [
        "ty",
        -8.18980884552002
      ],
      [
        "ist",
        -8.191882133483887
      ],
      [
        "▁How",
        -8.192187309265137
      ],
      [
        "ical",
        -8.193853378295898
      ],
      [
        "▁r",
        -8.194097518920898
      ],
      [
        "▁may",
        -8.199860572814941
      ],
      [
        "having",
        -8.203511238098145
      ],
      [
        "at",
        -8.2042818069458
      ],
      [
        "▁money",
        -8.207857131958008
      ],
      [
        "▁pro",
        -8.207982063293457
      ],
      [
        "▁o",
        -8.208535194396973
      ],
      [
        "side",
        -8.222607612609863
      ],
      [
        "▁uh",
        -8.22454833984375
      ],
      [
        "▁name",
        -8.231927871704102
      ],
      [
        "me",
        -8.232441902160645
      ],
      [
        "▁pre",
        -8.238127708435059
      ],
      [
        "!",
        -8.239486694335938
      ],
      [
        "second",
        -8.239890098571777
      ],
      [
        "nd",
        -8.243569374084473
      ],
      [
        "ine",
        -8.244396209716797
      ],
      [
        "▁am",
        -8.245768547058105
      ],
      [
        "▁De",
        -8.247952461242676
      ],
      [
        "▁side",
        -8.249322891235352
      ],
      [
        "▁Do",
        -8.250293731689453
      ],
      [
        "z",
        -8.252396583557129
      ],
      [
        "▁guy",
        -8.256911277770996
      ],
      [
        "ver",
        -8.256974220275879
      ],
      [
        "▁read",
        -8.258403778076172
      ],
      [
        "▁\"",
        -8.261567115783691
      ],
      [
        "ite",
        -8.272871017456055
      ],
      [
        "▁Re",
        -8.273717880249023
      ],
      [
        "▁la",
        -8.27470874786377
      ],
      [
        "ience",
        -8.276155471801758
      ],
      [
        "▁mind",
        -8.27617073059082
      ],
      [
        "▁idea",
        -8.277162551879883
      ],
      [
        "▁hear",
        -8.278149604797363
      ],
      [
        "▁five",
        -8.278955459594727
      ],
      [
        "▁head",
        -8.28038215637207
      ],
      [
        "▁four",
        -8.280485153198242
      ],
      [
        "▁O",
        -8.282163619995117
      ],
      [
        "▁se",
        -8.287294387817383
      ],
      [
        "▁um",
        -8.287642478942871
      ],
      [
        "trying",
        -8.298399925231934
      ],
      [
        "▁th",
        -8.29875373840332
      ],
      [
        "▁Let",
        -8.299449920654297
      ],
      [
        "im",
        -8.301044464111328
      ],
      [
        "▁mo",
        -8.30250072479248
      ],
      [
        "▁Yes",
        -8.306300163269043
      ],
      [
        "▁N",
        -8.311691284179688
      ],
      [
        "▁few",
        -8.31614875793457
      ],
      [
        "called",
        -8.317915916442871
      ],
      [
        "no",
        -8.319098472595215
      ],
      [
        "gether",
        -8.32050895690918
      ],
      [
        "▁move",
        -8.321401596069336
      ],
      [
        "ie",
        -8.322624206542969
      ],
      [
        "coming",
        -8.322659492492676
      ],
      [
        "▁car",
        -8.3236665725708
      ],
      [
        "▁both",
        -8.325749397277832
      ],
      [
        "ously",
        -8.327387809753418
      ],
      [
        "ul",
        -8.33009147644043
      ],
      [
        "▁set",
        -8.330425262451172
      ],
      [
        "▁story",
        -8.330855369567871
      ],
      [
        "▁fuck",
        -8.33165454864502
      ],
      [
        "ction",
        -8.348227500915527
      ],
      [
        "▁open",
        -8.348321914672852
      ],
      [
        "▁old",
        -8.350000381469727
      ],
      [
        "C",
        -8.350807189941406
      ],
      [
        "▁ask",
        -8.352201461791992
      ],
      [
        "▁else",
        -8.354040145874023
      ],
      [
        "ortant",
        -8.355762481689453
      ],
      [
        "ward",
        -8.356976509094238
      ],
      [
        "▁power",
        -8.359997749328613
      ],
      [
        "lieve",
        -8.362556457519531
      ],
      [
        "ha",
        -8.36269760131836
      ],
      [
        "▁care",
        -8.36302375793457
      ],
      [
        "▁turn",
        -8.363383293151855
      ],
      [
        "▁Right",
        -8.363404273986816
      ],
      [
        "I",
        -8.365367889404297
      ],
      [
        "ies",
        -8.367076873779297
      ],
      [
        "é",
        -8.367109298706055
      ],
      [
        "▁ever",
        -8.370315551757812
      ],
      [
        "enough",
        -8.371919631958008
      ],
      [
        "▁used",
        -8.375128746032715
      ],
      [
        "ated",
        -8.375615119934082
      ],
      [
        "▁bring",
        -8.375762939453125
      ],
      [
        "▁fun",
        -8.377237319946289
      ],
      [
        "▁bad",
        -8.378413200378418
      ],
      [
        "▁found",
        -8.381611824035645
      ],
      [
        "▁each",
        -8.385348320007324
      ],
      [
        "▁book",
        -8.388527870178223
      ],
      [
        "co",
        -8.391936302185059
      ],
      [
        "▁fact",
        -8.396342277526855
      ],
      [
        "reason",
        -8.397164344787598
      ],
      [
        "P",
        -8.400274276733398
      ],
      [
        "▁live",
        -8.400547981262207
      ],
      [
        "▁per",
        -8.400988578796387
      ],
      [
        "▁When",
        -8.401590347290039
      ],
      [
        "▁while",
        -8.402106285095215
      ],
      [
        "▁Thank",
        -8.404316902160645
      ],
      [
        "times",
        -8.404977798461914
      ],
      [
        "um",
        -8.405458450317383
      ],
      [
        "ton",
        -8.408987998962402
      ],
      [
        "▁D",
        -8.411992073059082
      ],
      [
        "▁R",
        -8.41552448272705
      ],
      [
        "▁creat",
        -8.420564651489258
      ],
      [
        "ho",
        -8.420775413513184
      ],
      [
        "▁d",
        -8.422122955322266
      ],
      [
        "▁defin",
        -8.422486305236816
      ],
      [
        "▁line",
        -8.425642967224121
      ],
      [
        "▁guess",
        -8.430755615234375
      ],
      [
        "▁quite",
        -8.432291030883789
      ],
      [
        "pe",
        -8.433984756469727
      ],
      [
        "man",
        -8.434449195861816
      ],
      [
        "▁build",
        -8.435030937194824
      ],
      [
        "▁en",
        -8.436271667480469
      ],
      [
        "rself",
        -8.441118240356445
      ],
      [
        "pisode",
        -8.443821907043457
      ],
      [
        "moment",
        -8.44384479522705
      ],
      [
        "▁yes",
        -8.444398880004883
      ],
      [
        "▁basic",
        -8.452391624450684
      ],
      [
        "▁video",
        -8.45334529876709
      ],
      [
        "▁night",
        -8.453591346740723
      ],
      [
        "couple",
        -8.455424308776855
      ],
      [
        "making",
        -8.455667495727539
      ],
      [
        "▁month",
        -8.456650733947754
      ],
      [
        "▁run",
        -8.460701942443848
      ],
      [
        "lu",
        -8.465465545654297
      ],
      [
        "lready",
        -8.46560001373291
      ],
      [
        "▁To",
        -8.465655326843262
      ],
      [
        "da",
        -8.466363906860352
      ],
      [
        "▁goes",
        -8.466663360595703
      ],
      [
        "D",
        -8.466976165771484
      ],
      [
        "▁For",
        -8.467130661010742
      ],
      [
        "...",
        -8.469169616699219
      ],
      [
        "ga",
        -8.469924926757812
      ],
      [
        "▁ex",
        -8.470888137817383
      ],
      [
        "▁po",
        -8.470900535583496
      ],
      [
        "▁says",
        -8.471372604370117
      ],
      [
        "▁free",
        -8.472845077514648
      ],
      [
        "ut",
        -8.474469184875488
      ],
      [
        "ance",
        -8.474730491638184
      ],
      [
        "▁job",
        -8.4752836227417
      ],
      [
        "ng",
        -8.477029800415039
      ],
      [
        "ach",
        -8.480815887451172
      ],
      [
        "▁seen",
        -8.481229782104492
      ],
      [
        "و",
        -8.481822967529297
      ],
      [
        "up",
        -8.482392311096191
      ],
      [
        "un",
        -8.482681274414062
      ],
      [
        "tween",
        -8.486188888549805
      ],
      [
        "▁won",
        -8.486241340637207
      ],
      [
        "ant",
        -8.488265037536621
      ],
      [
        "▁such",
        -8.488940238952637
      ],
      [
        "▁hope",
        -8.489032745361328
      ],
      [
        "▁comes",
        -8.489861488342285
      ],
      [
        "▁cool",
        -8.490562438964844
      ],
      [
        "▁house",
        -8.490806579589844
      ],
      [
        "tional",
        -8.492448806762695
      ],
      [
        "▁pass",
        -8.492779731750488
      ],
      [
        "▁water",
        -8.497396469116211
      ],
      [
        "▁walk",
        -8.499316215515137
      ],
      [
        "▁light",
        -8.502432823181152
      ],
      [
        "esting",
        -8.502674102783203
      ],
      [
        "▁Ma",
        -8.503865242004395
      ],
      [
        "▁h",
        -8.504929542541504
      ],
      [
        "ations",
        -8.507333755493164
      ],
      [
        "ni",
        -8.50997257232666
      ],
      [
        "▁pa",
        -8.511340141296387
      ],
      [
        "minute",
        -8.51488208770752
      ],
      [
        "▁bo",
        -8.515910148620605
      ],
      [
        "▁times",
        -8.516918182373047
      ],
      [
        "les",
        -8.516949653625488
      ],
      [
        "ر",
        -8.518157005310059
      ],
      [
        "▁case",
        -8.520344734191895
      ],
      [
        "▁far",
        -8.522486686706543
      ],
      [
        "▁child",
        -8.523870468139648
      ],
      [
        "ca",
        -8.526588439941406
      ],
      [
        "▁bu",
        -8.52804183959961
      ],
      [
        "▁sound",
        -8.529618263244629
      ],
      [
        "ard",
        -8.531852722167969
      ],
      [
        "▁wasn",
        -8.532976150512695
      ],
      [
        "▁que",
        -8.539838790893555
      ],
      [
        "day",
        -8.540030479431152
      ],
      [
        "system",
        -8.5426664352417
      ],
      [
        "▁hand",
        -8.54411506652832
      ],
      [
        "vi",
        -8.545309066772461
      ],
      [
        "ish",
        -8.546232223510742
      ],
      [
        "ci",
        -8.55002498626709
      ],
      [
        "▁speci",
        -8.551002502441406
      ],
      [
        "T",
        -8.552409172058105
      ],
      [
        "school",
        -8.553696632385254
      ],
      [
        "son",
        -8.55629825592041
      ],
      [
        "▁gener",
        -8.562760353088379
      ],
      [
        "▁once",
        -8.564325332641602
      ],
      [
        "▁w",
        -8.564567565917969
      ],
      [
        "▁small",
        -8.565271377563477
      ],
      [
        "am",
        -8.56930923461914
      ],
      [
        "▁K",
        -8.570649147033691
      ],
      [
        "ture",
        -8.576712608337402
      ],
      [
        "M",
        -8.577024459838867
      ],
      [
        "▁trans",
        -8.579708099365234
      ],
      [
        "▁left",
        -8.582918167114258
      ],
      [
        "itely",
        -8.583322525024414
      ],
      [
        "all",
        -8.58346939086914
      ],
      [
        "ag",
        -8.58770751953125
      ],
      [
        "family",
        -8.587883949279785
      ],
      [
        "▁V",
        -8.589518547058105
      ],
      [
        "ous",
        -8.592347145080566
      ],
      [
        "om",
        -8.593643188476562
      ],
      [
        "▁movie",
        -8.593978881835938
      ],
      [
        "ice",
        -8.594159126281738
      ],
      [
        "ions",
        -8.594797134399414
      ],
      [
        "م",
        -8.595993041992188
      ],
      [
        "▁anyth",
        -8.597857475280762
      ],
      [
        "ian",
        -8.59841251373291
      ],
      [
        "follow",
        -8.59969711303711
      ],
      [
        "▁top",
        -8.599716186523438
      ],
      [
        "▁pay",
        -8.600637435913086
      ],
      [
        "be",
        -8.604819297790527
      ],
      [
        "▁nice",
        -8.607076644897461
      ],
      [
        "%",
        -8.60915756225586
      ],
      [
        "▁thank",
        -8.614678382873535
      ],
      [
        "▁saw",
        -8.616087913513184
      ],
      [
        "▁cur",
        -8.617782592773438
      ],
      [
        "he",
        -8.619572639465332
      ],
      [
        "ge",
        -8.619688034057617
      ],
      [
        "▁ba",
        -8.620129585266113
      ],
      [
        "▁half",
        -8.621623039245605
      ],
      [
        "▁lead",
        -8.622058868408203
      ],
      [
        "roblem",
        -8.622466087341309
      ],
      [
        "▁La",
        -8.62397289276123
      ],
      [
        "▁rec",
        -8.632270812988281
      ],
      [
        "em",
        -8.63492202758789
      ],
      [
        "va",
        -8.63544750213623
      ],
      [
        "dy",
        -8.635499000549316
      ],
      [
        "bility",
        -8.638021469116211
      ],
      [
        "▁ca",
        -8.639488220214844
      ],
      [
        "ten",
        -8.642119407653809
      ],
      [
        "▁exact",
        -8.64391040802002
      ],
      [
        "di",
        -8.64551830291748
      ],
      [
        "▁obvi",
        -8.648545265197754
      ],
      [
        "ey",
        -8.64885425567627
      ],
      [
        "▁deal",
        -8.64913272857666
      ],
      [
        "ssion",
        -8.649358749389648
      ],
      [
        "▁pick",
        -8.653026580810547
      ],
      [
        "▁sub",
        -8.655430793762207
      ],
      [
        "xample",
        -8.658014297485352
      ],
      [
        "become",
        -8.658555030822754
      ],
      [
        "▁na",
        -8.659600257873535
      ],
      [
        "▁My",
        -8.659753799438477
      ],
      [
        "market",
        -8.660055160522461
      ],
      [
        "che",
        -8.661465644836426
      ],
      [
        "where",
        -8.662162780761719
      ],
      [
        "tor",
        -8.662221908569336
      ],
      [
        "self",
        -8.663838386535645
      ],
      [
        "▁hit",
        -8.663921356201172
      ],
      [
        "▁posi",
        -8.663960456848145
      ],
      [
        "myself",
        -8.66524600982666
      ],
      [
        "ي",
        -8.665751457214355
      ],
      [
        "com",
        -8.668530464172363
      ],
      [
        "▁six",
        -8.668973922729492
      ],
      [
        "▁stand",
        -8.670042991638184
      ],
      [
        "▁check",
        -8.670136451721191
      ],
      [
        "▁U",
        -8.672911643981934
      ],
      [
        "▁Just",
        -8.673397064208984
      ],
      [
        "▁close",
        -8.673858642578125
      ],
      [
        "▁speak",
        -8.674603462219238
      ],
      [
        "▁state",
        -8.675527572631836
      ],
      [
        "▁fan",
        -8.677284240722656
      ],
      [
        "▁wait",
        -8.681979179382324
      ],
      [
        "▁break",
        -8.682747840881348
      ],
      [
        "ster",
        -8.683348655700684
      ],
      [
        "ive",
        -8.68435001373291
      ],
      [
        "ren",
        -8.685545921325684
      ],
      [
        "ka",
        -8.685918807983398
      ],
      [
        "▁W",
        -8.68787670135498
      ],
      [
        "R",
        -8.688252449035645
      ],
      [
        "▁music",
        -8.691445350646973
      ],
      [
        "▁super",
        -8.69190788269043
      ],
      [
        "▁level",
        -8.69225788116455
      ],
      [
        "almost",
        -8.69260311126709
      ],
      [
        "spect",
        -8.696332931518555
      ],
      [
        "▁space",
        -8.697981834411621
      ],
      [
        "tic",
        -8.69830322265625
      ],
      [
        "ak",
        -8.702743530273438
      ],
      [
        "▁sense",
        -8.704197883605957
      ],
      [
        "▁grow",
        -8.704347610473633
      ],
      [
        "▁As",
        -8.704444885253906
      ],
      [
        "▁n",
        -8.706270217895508
      ],
      [
        "ially",
        -8.706563949584961
      ],
      [
        "▁took",
        -8.707412719726562
      ],
      [
        "▁cons",
        -8.707503318786621
      ],
      [
        "B",
        -8.709356307983398
      ],
      [
        "selves",
        -8.713006973266602
      ],
      [
        "season",
        -8.713068008422852
      ],
      [
        "ig",
        -8.713550567626953
      ],
      [
        "ook",
        -8.713750839233398
      ],
      [
        "pa",
        -8.715437889099121
      ],
      [
        "▁L",
        -8.71619701385498
      ],
      [
        "utely",
        -8.716267585754395
      ],
      [
        "▁k",
        -8.718250274658203
      ],
      [
        "ments",
        -8.726122856140137
      ],
      [
        "os",
        -8.727188110351562
      ],
      [
        "▁Jesus",
        -8.728135108947754
      ],
      [
        "▁days",
        -8.72931957244873
      ],
      [
        "▁Ro",
        -8.732542037963867
      ],
      [
        "▁ago",
        -8.73293685913086
      ],
      [
        "land",
        -8.732978820800781
      ],
      [
        "▁heart",
        -8.735259056091309
      ],
      [
        "د",
        -8.736091613769531
      ],
      [
        "▁Chris",
        -8.7373628616333
      ],
      [
        "▁quick",
        -8.737496376037598
      ],
      [
        "cu",
        -8.737568855285645
      ],
      [
        "matter",
        -8.738037109375
      ],
      [
        "▁face",
        -8.738126754760742
      ],
      [
        "ted",
        -8.738473892211914
      ],
      [
        "▁Some",
        -8.738590240478516
      ],
      [
        "do",
        -8.738718032836914
      ],
      [
        "und",
        -8.742030143737793
      ],
      [
        "▁mi",
        -8.74361515045166
      ],
      [
        "▁true",
        -8.750214576721191
      ],
      [
        "▁stay",
        -8.751595497131348
      ],
      [
        "▁Pa",
        -8.755435943603516
      ],
      [
        "▁hold",
        -8.755465507507324
      ],
      [
        "O",
        -8.75627326965332
      ],
      [
        "▁type",
        -8.756329536437988
      ],
      [
        "▁tr",
        -8.757129669189453
      ],
      [
        "less",
        -8.757354736328125
      ],
      [
        "▁H",
        -8.758471488952637
      ],
      [
        "line",
        -8.763260841369629
      ],
      [
        "upport",
        -8.765844345092773
      ],
      [
        "gainst",
        -8.766072273254395
      ],
      [
        "▁least",
        -8.7665433883667
      ],
      [
        "▁word",
        -8.767441749572754
      ],
      [
        "answer",
        -8.767786979675293
      ],
      [
        "j",
        -8.767943382263184
      ],
      [
        "▁step",
        -8.768478393554688
      ],
      [
        "▁heard",
        -8.768655776977539
      ],
      [
        "▁hi",
        -8.769448280334473
      ],
      [
        "ling",
        -8.769691467285156
      ],
      [
        "mi",
        -8.770326614379883
      ],
      [
        "▁sa",
        -8.77038860321045
      ],
      [
        "either",
        -8.771315574645996
      ],
      [
        "▁buy",
        -8.77165699005127
      ],
      [
        "▁rest",
        -8.77206802368164
      ],
      [
        "▁St",
        -8.774239540100098
      ],
      [
        "▁comp",
        -8.774499893188477
      ],
      [
        "fic",
        -8.775188446044922
      ],
      [
        "ا",
        -8.77776050567627
      ],
      [
        "ت",
        -8.77912712097168
      ],
      [
        "▁makes",
        -8.779967308044434
      ],
      [
        "ically",
        -8.781737327575684
      ],
      [
        "ang",
        -8.782662391662598
      ],
      [
        "produc",
        -8.783069610595703
      ],
      [
        "E",
        -8.784475326538086
      ],
      [
        "▁vi",
        -8.78581428527832
      ],
      [
        "taking",
        -8.788702011108398
      ],
      [
        "form",
        -8.792396545410156
      ],
      [
        "ن",
        -8.79869270324707
      ],
      [
        "▁since",
        -8.799327850341797
      ],
      [
        "ot",
        -8.79963493347168
      ],
      [
        "▁count",
        -8.800046920776367
      ],
      [
        "▁shit",
        -8.80013370513916
      ],
      [
        "sh",
        -8.80069637298584
      ],
      [
        "resent",
        -8.800989151000977
      ],
      [
        "▁until",
        -8.802389144897461
      ],
      [
        "conver",
        -8.80280590057373
      ],
      [
        "▁young",
        -8.809401512145996
      ],
      [
        "▁Ha",
        -8.809650421142578
      ],
      [
        "▁kids",
        -8.80980110168457
      ],
      [
        "▁Or",
        -8.810272216796875
      ],
      [
        "▁New",
        -8.814461708068848
      ],
      [
        "▁leave",
        -8.81515121459961
      ],
      [
        "ground",
        -8.815988540649414
      ],
      [
        "▁miss",
        -8.817492485046387
      ],
      [
        "▁hey",
        -8.81812858581543
      ],
      [
        "▁l",
        -8.820104598999023
      ],
      [
        "▁told",
        -8.82188606262207
      ],
      [
        "▁song",
        -8.82461929321289
      ],
      [
        "▁means",
        -8.8248291015625
      ],
      [
        "ure",
        -8.82526683807373
      ],
      [
        "▁ho",
        -8.825498580932617
      ],
      [
        "▁full",
        -8.827272415161133
      ],
      [
        "▁cut",
        -8.828385353088379
      ],
      [
        "▁using",
        -8.828414916992188
      ],
      [
        "▁sc",
        -8.828606605529785
      ],
      [
        "▁body",
        -8.829814910888672
      ],
      [
        "▁group",
        -8.830730438232422
      ],
      [
        "▁Go",
        -8.831496238708496
      ],
      [
        "▁absol",
        -8.831792831420898
      ],
      [
        "▁room",
        -8.832965850830078
      ],
      [
        "onship",
        -8.834259986877441
      ],
      [
        "▁human",
        -8.837621688842773
      ],
      [
        "▁sur",
        -8.839649200439453
      ],
      [
        "▁allow",
        -8.840558052062988
      ],
      [
        "red",
        -8.8445463180542
      ],
      [
        "▁yet",
        -8.848400115966797
      ],
      [
        "lar",
        -8.849067687988281
      ],
      [
        "ries",
        -8.849857330322266
      ],
      [
        "▁One",
        -8.84987735748291
      ],
      [
        "au",
        -8.85007381439209
      ],
      [
        "▁Mo",
        -8.8519287109375
      ],
      [
        "search",
        -8.853538513183594
      ],
      [
        "е",
        -8.85414981842041
      ],
      [
        "▁sh",
        -8.854841232299805
      ],
      [
        "ه",
        -8.854894638061523
      ],
      [
        "▁Le",
        -8.856083869934082
      ],
      [
        "ل",
        -8.857172012329102
      ],
      [
        "hy",
        -8.858010292053223
      ],
      [
        "▁air",
        -8.86134147644043
      ],
      [
        "vo",
        -8.861430168151855
      ],
      [
        "▁Ba",
        -8.864173889160156
      ],
      [
        "▁area",
        -8.865365982055664
      ],
      [
        "ba",
        -8.865779876708984
      ],
      [
        "▁stop",
        -8.866847038269043
      ],
      [
        "ow",
        -8.867715835571289
      ],
      [
        "▁clear",
        -8.868525505065918
      ],
      [
        "▁wrong",
        -8.868855476379395
      ],
      [
        "mazing",
        -8.870097160339355
      ],
      [
        "▁lo",
        -8.871426582336426
      ],
      [
        "fully",
        -8.873072624206543
      ],
      [
        "per",
        -8.873246192932129
      ],
      [
        "go",
        -8.874667167663574
      ],
      [
        "wa",
        -8.876036643981934
      ],
      [
        "▁possi",
        -8.876326560974121
      ],
      [
        "ی",
        -8.877270698547363
      ],
      [
        "tro",
        -8.879477500915527
      ],
      [
        "▁past",
        -8.884129524230957
      ],
      [
        "▁da",
        -8.886237144470215
      ],
      [
        "tory",
        -8.887429237365723
      ],
      [
        "expect",
        -8.892228126525879
      ],
      [
        "and",
        -8.89306354522705
      ],
      [
        "ition",
        -8.893683433532715
      ],
      [
        "▁wheth",
        -8.893691062927246
      ],
      [
        "▁issue",
        -8.894025802612305
      ],
      [
        "▁writ",
        -8.89453125
      ],
      [
        "fi",
        -8.894998550415039
      ],
      [
        "▁Ja",
        -8.895549774169922
      ],
      [
        "▁piece",
        -8.896522521972656
      ],
      [
        "▁ha",
        -8.896896362304688
      ],
      [
        "ah",
        -8.899083137512207
      ],
      [
        "wi",
        -8.899349212646484
      ],
      [
        "▁order",
        -8.901896476745605
      ],
      [
        "▁espec",
        -8.904784202575684
      ],
      [
        "ner",
        -8.904807090759277
      ],
      [
        "relati",
        -8.90532112121582
      ],
      [
        "▁knew",
        -8.9068603515625
      ],
      [
        "▁isn",
        -8.910194396972656
      ],
      [
        "▁focus",
        -8.910478591918945
      ],
      [
        "tain",
        -8.913580894470215
      ],
      [
        "▁test",
        -8.914241790771484
      ],
      [
        "▁bi",
        -8.917304039001465
      ],
      [
        "▁Ho",
        -8.918100357055664
      ],
      [
        "gu",
        -8.918365478515625
      ],
      [
        "record",
        -8.921841621398926
      ],
      [
        "▁yn",
        -8.925897598266602
      ],
      [
        "▁food",
        -8.925972938537598
      ],
      [
        "▁later",
        -8.928470611572266
      ],
      [
        "ap",
        -8.929786682128906
      ],
      [
        "▁$",
        -8.930574417114258
      ],
      [
        "ompany",
        -8.930594444274902
      ],
      [
        "▁girl",
        -8.931021690368652
      ],
      [
        "▁must",
        -8.932236671447754
      ],
      [
        "▁excit",
        -8.932639122009277
      ],
      [
        "gg",
        -8.933134078979492
      ],
      [
        "▁Ca",
        -8.933996200561523
      ],
      [
        "od",
        -8.934683799743652
      ],
      [
        "▁Bo",
        -8.934969902038574
      ],
      [
        "▁plan",
        -8.935236930847168
      ],
      [
        "▁meet",
        -8.93568229675293
      ],
      [
        "▁sp",
        -8.936230659484863
      ],
      [
        "▁Se",
        -8.94008731842041
      ],
      [
        "▁succe",
        -8.94096851348877
      ],
      [
        "▁less",
        -8.94432258605957
      ],
      [
        "ize",
        -8.944500923156738
      ],
      [
        "icular",
        -8.945056915283203
      ],
      [
        "row",
        -8.947490692138672
      ],
      [
        "ld",
        -8.947938919067383
      ],
      [
        "▁teach",
        -8.94893741607666
      ],
      [
        "ip",
        -8.954086303710938
      ],
      [
        "ontrol",
        -8.95534610748291
      ],
      [
        "bo",
        -8.95704174041748
      ],
      [
        "▁star",
        -8.95771598815918
      ],
      [
        "▁share",
        -8.95938491821289
      ],
      [
        "light",
        -8.961296081542969
      ],
      [
        "ball",
        -8.96158218383789
      ],
      [
        "mation",
        -8.96166706085205
      ],
      [
        "▁rep",
        -8.962485313415527
      ],
      [
        "▁value",
        -8.966387748718262
      ],
      [
        "▁train",
        -8.97018051147461
      ],
      [
        "sive",
        -8.970291137695312
      ],
      [
        "rence",
        -8.970890998840332
      ],
      [
        "qui",
        -8.97185230255127
      ],
      [
        "▁techn",
        -8.972455978393555
      ],
      [
        "▁certa",
        -8.9733247756958
      ],
      [
        "▁Then",
        -8.974882125854492
      ],
      [
        "ities",
        -8.975265502929688
      ],
      [
        "po",
        -8.976327896118164
      ],
      [
        "way",
        -8.976357460021973
      ],
      [
        "▁Me",
        -8.977892875671387
      ],
      [
        "▁short",
        -8.978824615478516
      ],
      [
        "▁main",
        -8.978894233703613
      ],
      [
        "▁fall",
        -8.982150077819824
      ],
      [
        "wards",
        -8.9824857711792
      ],
      [
        "▁Sa",
        -8.983622550964355
      ],
      [
        "tra",
        -8.984106063842773
      ],
      [
        "L",
        -8.985461235046387
      ],
      [
        "▁often",
        -8.985709190368652
      ],
      [
        "bi",
        -8.98623275756836
      ],
      [
        "▁class",
        -8.986233711242676
      ],
      [
        "▁Li",
        -8.986499786376953
      ],
      [
        "ger",
        -8.988371849060059
      ],
      [
        "ep",
        -8.989365577697754
      ],
      [
        "▁win",
        -8.989603996276855
      ],
      [
        "iv",
        -8.990174293518066
      ],
      [
        "▁mu",
        -8.992423057556152
      ],
      [
        "▁along",
        -8.994239807128906
      ],
      [
        "å",
        -8.99525260925293
      ],
      [
        "▁OK",
        -8.996599197387695
      ],
      [
        "▁front",
        -8.998224258422852
      ],
      [
        "during",
        -8.999367713928223
      ],
      [
        "▁du",
        -8.999914169311523
      ],
      [
        "ating",
        -9.000185012817383
      ],
      [
        "led",
        -9.00027847290039
      ],
      [
        "ism",
        -9.000290870666504
      ],
      [
        "▁easy",
        -9.001694679260254
      ],
      [
        "ator",
        -9.002311706542969
      ],
      [
        "▁enjoy",
        -9.004293441772461
      ],
      [
        "ber",
        -9.004940032958984
      ],
      [
        "▁haven",
        -9.006134033203125
      ],
      [
        "▁situa",
        -9.007049560546875
      ],
      [
        "▁black",
        -9.00743293762207
      ],
      [
        "energy",
        -9.007623672485352
      ],
      [
        "▁det",
        -9.010364532470703
      ],
      [
        "▁women",
        -9.01065444946289
      ],
      [
        "N",
        -9.011513710021973
      ],
      [
        "▁Don",
        -9.0160551071167
      ],
      [
        "parent",
        -9.017770767211914
      ],
      [
        "▁Why",
        -9.020317077636719
      ],
      [
        "▁fire",
        -9.020331382751465
      ],
      [
        "der",
        -9.021602630615234
      ],
      [
        "▁le",
        -9.024235725402832
      ],
      [
        "▁fight",
        -9.024870872497559
      ],
      [
        "▁chang",
        -9.025651931762695
      ],
      [
        "ement",
        -9.026383399963379
      ],
      [
        "can",
        -9.027878761291504
      ],
      [
        "▁foot",
        -9.029459953308105
      ],
      [
        "▁Na",
        -9.030130386352539
      ],
      [
        "▁Ra",
        -9.031861305236816
      ],
      [
        "create",
        -9.032488822937012
      ],
      [
        "▁add",
        -9.033122062683105
      ],
      [
        "ron",
        -9.034554481506348
      ],
      [
        "F",
        -9.03532600402832
      ],
      [
        "stead",
        -9.035615921020508
      ],
      [
        "▁des",
        -9.036656379699707
      ],
      [
        "▁morn",
        -9.0381498336792
      ],
      [
        "▁Co",
        -9.040934562683105
      ],
      [
        "ab",
        -9.04224681854248
      ],
      [
        "▁eat",
        -9.042732238769531
      ],
      [
        "▁felt",
        -9.042911529541016
      ],
      [
        "▁runn",
        -9.044498443603516
      ],
      [
        "we",
        -9.044965744018555
      ],
      [
        "ning",
        -9.048744201660156
      ],
      [
        "▁post",
        -9.04956340789795
      ],
      [
        "pi",
        -9.050450325012207
      ],
      [
        ";",
        -9.053049087524414
      ],
      [
        "ny",
        -9.05362319946289
      ],
      [
        "▁Lord",
        -9.05436897277832
      ],
      [
        "racter",
        -9.055581092834473
      ],
      [
        "behind",
        -9.060038566589355
      ],
      [
        "▁Can",
        -9.06406307220459
      ],
      [
        "▁bea",
        -9.064136505126953
      ],
      [
        "▁favor",
        -9.064603805541992
      ],
      [
        "▁ready",
        -9.066211700439453
      ],
      [
        "ee",
        -9.067480087280273
      ],
      [
        "single",
        -9.067906379699707
      ],
      [
        "▁seven",
        -9.075495719909668
      ],
      [
        "▁war",
        -9.076934814453125
      ],
      [
        "health",
        -9.077648162841797
      ],
      [
        "social",
        -9.079365730285645
      ],
      [
        "▁happy",
        -9.080602645874023
      ],
      [
        "io",
        -9.080713272094727
      ],
      [
        "▁liter",
        -9.081754684448242
      ],
      [
        "▁bar",
        -9.082159996032715
      ],
      [
        "across",
        -9.085174560546875
      ],
      [
        "action",
        -9.08549690246582
      ],
      [
        "▁Not",
        -9.086748123168945
      ],
      [
        "▁mill",
        -9.089664459228516
      ],
      [
        "▁gone",
        -9.091009140014648
      ],
      [
        "▁huge",
        -9.091429710388184
      ],
      [
        "mp",
        -9.092206954956055
      ],
      [
        "▁early",
        -9.093128204345703
      ],
      [
        "ple",
        -9.093631744384766
      ],
      [
        "hu",
        -9.095439910888672
      ],
      [
        "▁Every",
        -9.098529815673828
      ],
      [
        "tract",
        -9.099678039550781
      ],
      [
        "▁die",
        -9.099730491638184
      ],
      [
        "rd",
        -9.101494789123535
      ],
      [
        "▁infor",
        -9.102574348449707
      ],
      [
        "ration",
        -9.102784156799316
      ],
      [
        "▁final",
        -9.103464126586914
      ],
      [
        "▁Da",
        -9.10403060913086
      ],
      [
        "ric",
        -9.107940673828125
      ],
      [
        "▁direc",
        -9.109135627746582
      ],
      [
        "▁gra",
        -9.109183311462402
      ],
      [
        "fo",
        -9.109792709350586
      ],
      [
        "▁Al",
        -9.11117172241211
      ],
      [
        "▁film",
        -9.112849235534668
      ],
      [
        "fe",
        -9.113022804260254
      ],
      [
        "▁large",
        -9.115986824035645
      ],
      [
        "gen",
        -9.119293212890625
      ],
      [
        "strong",
        -9.119502067565918
      ],
      [
        "▁disc",
        -9.120002746582031
      ],
      [
        "▁fa",
        -9.121415138244629
      ],
      [
        "▁boy",
        -9.122583389282227
      ],
      [
        "▁pull",
        -9.12259292602539
      ],
      [
        "ology",
        -9.124296188354492
      ],
      [
        "utiful",
        -9.12459945678711
      ],
      [
        "▁va",
        -9.124744415283203
      ],
      [
        "▁looks",
        -9.127294540405273
      ],
      [
        "sta",
        -9.127840042114258
      ],
      [
        "rocess",
        -9.132211685180664
      ],
      [
        "▁Y",
        -9.132549285888672
      ],
      [
        "nation",
        -9.132739067077637
      ],
      [
        "figure",
        -9.139142990112305
      ],
      [
        "honest",
        -9.140530586242676
      ],
      [
        "▁form",
        -9.140780448913574
      ],
      [
        "tri",
        -9.142746925354004
      ],
      [
        "▁Wa",
        -9.143213272094727
      ],
      [
        "ع",
        -9.143847465515137
      ],
      [
        "▁fine",
        -9.145126342773438
      ],
      [
        "▁door",
        -9.147528648376465
      ],
      [
        "▁cover",
        -9.147950172424316
      ],
      [
        "ious",
        -9.150182723999023
      ],
      [
        "▁land",
        -9.151371955871582
      ],
      [
        "▁words",
        -9.151972770690918
      ],
      [
        "▁list",
        -9.152130126953125
      ],
      [
        "▁sign",
        -9.153017044067383
      ],
      [
        "ris",
        -9.154001235961914
      ],
      [
        "gi",
        -9.154319763183594
      ],
      [
        "▁oppor",
        -9.155195236206055
      ],
      [
        "▁write",
        -9.155582427978516
      ],
      [
        "rate",
        -9.158084869384766
      ],
      [
        "living",
        -9.159357070922852
      ],
      [
        "▁crazy",
        -9.159431457519531
      ],
      [
        "▁seems",
        -9.16001033782959
      ],
      [
        "▁John",
        -9.160340309143066
      ],
      [
        "time",
        -9.16416072845459
      ],
      [
        "▁terms",
        -9.164505004882812
      ],
      [
        "val",
        -9.166070938110352
      ],
      [
        "ervice",
        -9.166971206665039
      ],
      [
        "▁appro",
        -9.168490409851074
      ],
      [
        "port",
        -9.170356750488281
      ],
      [
        "erfect",
        -9.170977592468262
      ],
      [
        "▁Di",
        -9.174539566040039
      ],
      [
        "▁har",
        -9.176504135131836
      ],
      [
        "▁plus",
        -9.177936553955078
      ],
      [
        "▁ال",
        -9.178487777709961
      ],
      [
        "giving",
        -9.178792953491211
      ],
      [
        "▁Maybe",
        -9.181262969970703
      ],
      [
        "ors",
        -9.183570861816406
      ],
      [
        "night",
        -9.184505462646484
      ],
      [
        "▁push",
        -9.186213493347168
      ],
      [
        "▁join",
        -9.18624210357666
      ],
      [
        "▁Mar",
        -9.186954498291016
      ],
      [
        "G",
        -9.187036514282227
      ],
      [
        "con",
        -9.187541961669922
      ],
      [
        "entire",
        -9.189494132995605
      ],
      [
        "munity",
        -9.190133094787598
      ],
      [
        "▁sit",
        -9.190606117248535
      ],
      [
        "▁reach",
        -9.190654754638672
      ],
      [
        "▁elect",
        -9.191340446472168
      ],
      [
        "▁data",
        -9.192991256713867
      ],
      [
        "▁agree",
        -9.19411849975586
      ],
      [
        "oo",
        -9.198872566223145
      ],
      [
        "▁asked",
        -9.19937515258789
      ],
      [
        "▁On",
        -9.201492309570312
      ],
      [
        "▁send",
        -9.20433235168457
      ],
      [
        "ide",
        -9.204376220703125
      ],
      [
        "future",
        -9.204535484313965
      ],
      [
        "▁sell",
        -9.205377578735352
      ],
      [
        "ft",
        -9.206799507141113
      ],
      [
        "jo",
        -9.207775115966797
      ],
      [
        "▁ni",
        -9.207779884338379
      ],
      [
        "ctor",
        -9.209047317504883
      ],
      [
        "ff",
        -9.209071159362793
      ],
      [
        "depend",
        -9.212953567504883
      ],
      [
        "▁self",
        -9.213046073913574
      ],
      [
        "▁ac",
        -9.214652061462402
      ],
      [
        "ub",
        -9.215879440307617
      ],
      [
        "▁phone",
        -9.216513633728027
      ],
      [
        "H",
        -9.21670913696289
      ],
      [
        "king",
        -9.217204093933105
      ],
      [
        "س",
        -9.217345237731934
      ],
      [
        "ou",
        -9.21832275390625
      ],
      [
        "amount",
        -9.21908950805664
      ],
      [
        "▁ja",
        -9.220247268676758
      ],
      [
        "▁fin",
        -9.221041679382324
      ],
      [
        "bb",
        -9.222188949584961
      ],
      [
        "end",
        -9.2229585647583
      ],
      [
        "▁coach",
        -9.223636627197266
      ],
      [
        "▁kid",
        -9.224626541137695
      ],
      [
        "ertain",
        -9.224735260009766
      ],
      [
        "letely",
        -9.229743957519531
      ],
      [
        "▁ball",
        -9.233514785766602
      ],
      [
        "moving",
        -9.233748435974121
      ],
      [
        "▁hours",
        -9.234230041503906
      ],
      [
        "▁manag",
        -9.234424591064453
      ],
      [
        "▁spend",
        -9.23469066619873
      ],
      [
        "▁usual",
        -9.234749794006348
      ],
      [
        "▁kill",
        -9.23589038848877
      ],
      [
        "ick",
        -9.236687660217285
      ],
      [
        "▁su",
        -9.236882209777832
      ],
      [
        "▁touch",
        -9.237579345703125
      ],
      [
        "result",
        -9.238622665405273
      ],
      [
        "ä",
        -9.23870849609375
      ],
      [
        "mb",
        -9.238740921020508
      ],
      [
        "▁diff",
        -9.240494728088379
      ],
      [
        "▁pictu",
        -9.240958213806152
      ],
      [
        "mother",
        -9.241060256958008
      ],
      [
        "ial",
        -9.241181373596191
      ],
      [
        "▁gen",
        -9.243279457092285
      ],
      [
        "▁arm",
        -9.243325233459473
      ],
      [
        "▁media",
        -9.2437162399292
      ],
      [
        "ear",
        -9.243833541870117
      ],
      [
        "anyway",
        -9.24473762512207
      ],
      [
        "▁At",
        -9.244958877563477
      ],
      [
        "▁lost",
        -9.245104789733887
      ],
      [
        "▁je",
        -9.245494842529297
      ],
      [
        "tinue",
        -9.245914459228516
      ],
      [
        "▁weird",
        -9.246435165405273
      ],
      [
        "source",
        -9.24682331085205
      ],
      [
        "▁Je",
        -9.247194290161133
      ],
      [
        "и",
        -9.24785327911377
      ],
      [
        "▁baby",
        -9.247946739196777
      ],
      [
        "ell",
        -9.248261451721191
      ],
      [
        "old",
        -9.25293254852295
      ],
      [
        "▁key",
        -9.253212928771973
      ],
      [
        "▁multi",
        -9.253715515136719
      ],
      [
        "с",
        -9.255903244018555
      ],
      [
        "▁deep",
        -9.25597095489502
      ],
      [
        "▁equal",
        -9.258957862854004
      ],
      [
        "▁given",
        -9.2611083984375
      ],
      [
        "▁white",
        -9.261425971984863
      ],
      [
        "а",
        -9.261722564697266
      ],
      [
        "▁pe",
        -9.262528419494629
      ],
      [
        "gram",
        -9.265002250671387
      ],
      [
        "▁Um",
        -9.26501750946045
      ],
      [
        "men",
        -9.265767097473145
      ],
      [
        "о",
        -9.265829086303711
      ],
      [
        "emp",
        -9.266592979431152
      ],
      [
        "▁gave",
        -9.26683521270752
      ],
      [
        "ك",
        -9.267192840576172
      ],
      [
        "▁low",
        -9.267684936523438
      ],
      [
        "ph",
        -9.268341064453125
      ],
      [
        "▁fast",
        -9.26915168762207
      ],
      [
        "wn",
        -9.269535064697266
      ],
      [
        "▁Man",
        -9.269639015197754
      ],
      [
        "▁eight",
        -9.26994514465332
      ],
      [
        "▁ahead",
        -9.270735740661621
      ],
      [
        "▁eyes",
        -9.27210521697998
      ],
      [
        "▁journ",
        -9.272489547729492
      ],
      [
        "י",
        -9.27332592010498
      ],
      [
        "ler",
        -9.273736000061035
      ],
      [
        "ient",
        -9.274319648742676
      ],
      [
        "ise",
        -9.274370193481445
      ],
      [
        "qu",
        -9.274736404418945
      ],
      [
        "▁law",
        -9.27739143371582
      ],
      [
        "▁Lo",
        -9.277520179748535
      ],
      [
        "▁Ameri",
        -9.279704093933105
      ],
      [
        "ized",
        -9.280120849609375
      ],
      [
        "▁funny",
        -9.283392906188965
      ],
      [
        "▁event",
        -9.28357219696045
      ],
      [
        "our",
        -9.284185409545898
      ],
      [
        "▁Here",
        -9.284661293029785
      ],
      [
        "wonder",
        -9.28836441040039
      ],
      [
        "▁app",
        -9.288464546203613
      ],
      [
        "▁offer",
        -9.289196014404297
      ],
      [
        "▁An",
        -9.289769172668457
      ],
      [
        "rogram",
        -9.291475296020508
      ],
      [
        "▁Hi",
        -9.291528701782227
      ],
      [
        "▁Hey",
        -9.291892051696777
      ],
      [
        ".\"",
        -9.292503356933594
      ],
      [
        "▁art",
        -9.29272747039795
      ],
      [
        "hi",
        -9.29306697845459
      ],
      [
        "cho",
        -9.29344367980957
      ],
      [
        "▁v",
        -9.293703079223633
      ],
      [
        "vision",
        -9.293916702270508
      ],
      [
        "design",
        -9.295731544494629
      ],
      [
        "▁takes",
        -9.297224044799805
      ],
      [
        "▁Ar",
        -9.29771614074707
      ],
      [
        "▁Po",
        -9.298718452453613
      ],
      [
        "▁woman",
        -9.300501823425293
      ],
      [
        "▁Mi",
        -9.300869941711426
      ],
      [
        "▁Who",
        -9.303844451904297
      ],
      [
        "lock",
        -9.306121826171875
      ],
      [
        "tioned",
        -9.30648422241211
      ],
      [
        "á",
        -9.306832313537598
      ],
      [
        "▁games",
        -9.308627128601074
      ],
      [
        "ac",
        -9.309030532836914
      ],
      [
        "▁throw",
        -9.309338569641113
      ],
      [
        "nder",
        -9.309569358825684
      ],
      [
        "view",
        -9.310959815979004
      ],
      [
        "▁ju",
        -9.311022758483887
      ],
      [
        "rought",
        -9.313830375671387
      ],
      [
        "og",
        -9.314338684082031
      ],
      [
        "ud",
        -9.314417839050293
      ],
      [
        "▁sent",
        -9.3158597946167
      ],
      [
        "icult",
        -9.316699981689453
      ],
      [
        "▁third",
        -9.320051193237305
      ],
      [
        "public",
        -9.320467948913574
      ],
      [
        "▁Sp",
        -9.32242202758789
      ],
      [
        "▁brain",
        -9.322565078735352
      ],
      [
        "▁decis",
        -9.324774742126465
      ],
      [
        "▁hundr",
        -9.326744079589844
      ],
      [
        "▁fit",
        -9.327546119689941
      ],
      [
        "dollar",
        -9.328387260437012
      ],
      [
        "▁neces",
        -9.330474853515625
      ],
      [
        "▁voice",
        -9.330772399902344
      ],
      [
        "▁J",
        -9.331167221069336
      ],
      [
        "ify",
        -9.334321975708008
      ],
      [
        "▁Con",
        -9.336448669433594
      ],
      [
        "ade",
        -9.340838432312012
      ],
      [
        "▁soon",
        -9.341312408447266
      ],
      [
        "▁Un",
        -9.341906547546387
      ],
      [
        "▁cap",
        -9.341944694519043
      ],
      [
        "lin",
        -9.343247413635254
      ],
      [
        "father",
        -9.34326457977295
      ],
      [
        "tter",
        -9.34344482421875
      ],
      [
        "lan",
        -9.343685150146484
      ],
      [
        "wesome",
        -9.343770980834961
      ],
      [
        "uck",
        -9.34377670288086
      ],
      [
        "▁dog",
        -9.344061851501465
      ],
      [
        "by",
        -9.345102310180664
      ],
      [
        "ob",
        -9.345699310302734
      ],
      [
        "ب",
        -9.346378326416016
      ],
      [
        "▁ten",
        -9.34676456451416
      ],
      [
        "▁si",
        -9.346918106079102
      ],
      [
        "den",
        -9.347368240356445
      ],
      [
        "▁track",
        -9.349933624267578
      ],
      [
        "ze",
        -9.35116195678711
      ],
      [
        "▁chi",
        -9.351595878601074
      ],
      [
        "appear",
        -9.352456092834473
      ],
      [
        "chance",
        -9.35256290435791
      ],
      [
        "llenge",
        -9.35284423828125
      ],
      [
        "▁shot",
        -9.355164527893066
      ],
      [
        "▁sorry",
        -9.357897758483887
      ],
      [
        "tories",
        -9.358085632324219
      ],
      [
        "▁nega",
        -9.360742568969727
      ],
      [
        "▁Te",
        -9.3621244430542
      ],
      [
        "▁para",
        -9.362360000610352
      ],
      [
        "▁god",
        -9.363547325134277
      ],
      [
        "▁view",
        -9.364309310913086
      ],
      [
        "rather",
        -9.365878105163574
      ],
      [
        "▁Mr",
        -9.366072654724121
      ],
      [
        "ו",
        -9.367229461669922
      ],
      [
        "▁drink",
        -9.368313789367676
      ],
      [
        "▁hour",
        -9.369148254394531
      ],
      [
        "ugh",
        -9.370623588562012
      ],
      [
        "▁These",
        -9.370634078979492
      ],
      [
        "lic",
        -9.371176719665527
      ],
      [
        "▁hot",
        -9.371552467346191
      ],
      [
        "late",
        -9.373501777648926
      ],
      [
        "▁incre",
        -9.37368392944336
      ],
      [
        "▁serv",
        -9.374038696289062
      ],
      [
        "please",
        -9.376060485839844
      ],
      [
        "terest",
        -9.379517555236816
      ],
      [
        "▁field",
        -9.380144119262695
      ],
      [
        "ently",
        -9.380892753601074
      ],
      [
        "▁dark",
        -9.381349563598633
      ],
      [
        "▁relat",
        -9.381586074829102
      ],
      [
        "stance",
        -9.386783599853516
      ],
      [
        "ai",
        -9.388028144836426
      ],
      [
        "ya",
        -9.388672828674316
      ],
      [
        "V",
        -9.388874053955078
      ],
      [
        "▁Ka",
        -9.389886856079102
      ],
      [
        "custom",
        -9.39107608795166
      ],
      [
        "church",
        -9.392374038696289
      ],
      [
        "▁expla",
        -9.392638206481934
      ],
      [
        "▁Ju",
        -9.392658233642578
      ],
      [
        "▁seem",
        -9.392862319946289
      ],
      [
        "ousand",
        -9.393081665039062
      ],
      [
        "ency",
        -9.393359184265137
      ],
      [
        "finish",
        -9.393660545349121
      ],
      [
        "▁pi",
        -9.394664764404297
      ],
      [
        "▁ways",
        -9.395894050598145
      ],
      [
        "ح",
        -9.39594554901123
      ],
      [
        "▁exist",
        -9.39599323272705
      ],
      [
        "nc",
        -9.397337913513184
      ],
      [
        "▁dead",
        -9.39737606048584
      ],
      [
        "▁Dr",
        -9.398378372192383
      ],
      [
        "client",
        -9.398672103881836
      ],
      [
        "▁Z",
        -9.399008750915527
      ],
      [
        "sider",
        -9.400711059570312
      ],
      [
        "▁trust",
        -9.401521682739258
      ],
      [
        "gest",
        -9.401556015014648
      ],
      [
        "gan",
        -9.40227222442627
      ],
      [
        "han",
        -9.404308319091797
      ],
      [
        "W",
        -9.4043550491333
      ],
      [
        "▁Are",
        -9.406368255615234
      ],
      [
        "ace",
        -9.408614158630371
      ],
      [
        "graph",
        -9.410457611083984
      ],
      [
        "travel",
        -9.410662651062012
      ],
      [
        "invest",
        -9.4140043258667
      ],
      [
        "▁news",
        -9.41524600982666
      ],
      [
        "ki",
        -9.4153413772583
      ],
      [
        "▁fear",
        -9.415443420410156
      ],
      [
        "nk",
        -9.415628433227539
      ],
      [
        "imilar",
        -9.415858268737793
      ],
      [
        "▁emo",
        -9.41601848602295
      ],
      [
        "suppos",
        -9.417911529541016
      ],
      [
        "cla",
        -9.418488502502441
      ],
      [
        "iz",
        -9.419187545776367
      ],
      [
        "▁flow",
        -9.419829368591309
      ],
      [
        "bu",
        -9.420503616333008
      ],
      [
        "load",
        -9.420577049255371
      ],
      [
        "▁based",
        -9.420777320861816
      ],
      [
        "▁weeks",
        -9.421319007873535
      ],
      [
        "lf",
        -9.423846244812012
      ],
      [
        "▁drive",
        -9.425610542297363
      ],
      [
        "roject",
        -9.426355361938477
      ],
      [
        "▁brand",
        -9.427434921264648
      ],
      [
        "dom",
        -9.427870750427246
      ],
      [
        "magine",
        -9.428024291992188
      ],
      [
        "▁link",
        -9.429953575134277
      ],
      [
        "sation",
        -9.430054664611816
      ],
      [
        "cast",
        -9.430257797241211
      ],
      [
        "▁worth",
        -9.430852890014648
      ],
      [
        "▁sleep",
        -9.433205604553223
      ],
      [
        "gar",
        -9.434643745422363
      ],
      [
        "simple",
        -9.436808586120605
      ],
      [
        "report",
        -9.437264442443848
      ],
      [
        "▁force",
        -9.438314437866211
      ],
      [
        "pp",
        -9.438736915588379
      ],
      [
        "▁mom",
        -9.438970565795898
      ],
      [
        "ccount",
        -9.439584732055664
      ],
      [
        "▁lives",
        -9.44177532196045
      ],
      [
        "ley",
        -9.442485809326172
      ],
      [
        "▁known",
        -9.443177223205566
      ],
      [
        "ountry",
        -9.443464279174805
      ],
      [
        "bsite",
        -9.44507122039795
      ],
      [
        "▁major",
        -9.4465913772583
      ],
      [
        "в",
        -9.447555541992188
      ],
      [
        "▁roll",
        -9.447762489318848
      ],
      [
        "▁jump",
        -9.447834014892578
      ],
      [
        "mber",
        -9.45079231262207
      ],
      [
        "▁red",
        -9.453396797180176
      ],
      [
        "▁city",
        -9.456280708312988
      ],
      [
        "set",
        -9.45693588256836
      ],
      [
        "rk",
        -9.457257270812988
      ],
      [
        "mental",
        -9.457337379455566
      ],
      [
        "av",
        -9.460675239562988
      ],
      [
        "▁death",
        -9.460692405700684
      ],
      [
        "ship",
        -9.461281776428223
      ],
      [
        "▁hands",
        -9.461979866027832
      ],
      [
        "ug",
        -9.462041854858398
      ],
      [
        "middle",
        -9.462311744689941
      ],
      [
        "▁sun",
        -9.464760780334473
      ],
      [
        "▁base",
        -9.465078353881836
      ],
      [
        "inside",
        -9.465493202209473
      ],
      [
        "▁road",
        -9.466241836547852
      ],
      [
        "velop",
        -9.466629981994629
      ],
      [
        "ight",
        -9.46700382232666
      ],
      [
        "▁ا",
        -9.467375755310059
      ],
      [
        "lly",
        -9.467445373535156
      ],
      [
        "í",
        -9.4685640335083
      ],
      [
        "▁rock",
        -9.468690872192383
      ],
      [
        "▁compa",
        -9.469518661499023
      ],
      [
        "▁Vi",
        -9.469911575317383
      ],
      [
        "▁needs",
        -9.47014045715332
      ],
      [
        "wo",
        -9.471970558166504
      ],
      [
        "▁por",
        -9.473296165466309
      ],
      [
        "▁dream",
        -9.473833084106445
      ],
      [
        "ack",
        -9.473909378051758
      ],
      [
        "▁works",
        -9.473946571350098
      ],
      [
        "▁With",
        -9.475066184997559
      ],
      [
        "▁Where",
        -9.47530746459961
      ],
      [
        "▁Jo",
        -9.476038932800293
      ],
      [
        "▁begin",
        -9.476088523864746
      ],
      [
        "ential",
        -9.477075576782227
      ],
      [
        "▁rule",
        -9.477331161499023
      ],
      [
        "▁compe",
        -9.479007720947266
      ],
      [
        "▁Look",
        -9.479084968566895
      ],
      [
        "▁Br",
        -9.479087829589844
      ],
      [
        "▁cost",
        -9.480192184448242
      ],
      [
        "▁board",
        -9.480210304260254
      ],
      [
        "▁goal",
        -9.480402946472168
      ],
      [
        "▁Ta",
        -9.48093318939209
      ],
      [
        "ker",
        -9.48359203338623
      ],
      [
        "ssage",
        -9.484257698059082
      ],
      [
        "tunity",
        -9.484946250915527
      ],
      [
        "▁taken",
        -9.487295150756836
      ],
      [
        "▁box",
        -9.48802661895752
      ],
      [
        "ative",
        -9.48840618133545
      ],
      [
        "▁match",
        -9.489437103271484
      ],
      [
        "if",
        -9.490029335021973
      ],
      [
        "lcome",
        -9.490504264831543
      ],
      [
        "▁sin",
        -9.4909029006958
      ],
      [
        "amp",
        -9.491107940673828
      ],
      [
        "▁State",
        -9.491924285888672
      ],
      [
        "▁extra",
        -9.492724418640137
      ],
      [
        "▁draw",
        -9.493718147277832
      ],
      [
        "nch",
        -9.494184494018555
      ],
      [
        "fu",
        -9.498034477233887
      ],
      [
        "scribe",
        -9.499979972839355
      ],
      [
        "▁proce",
        -9.500555992126465
      ],
      [
        "▁clean",
        -9.500929832458496
      ],
      [
        "sident",
        -9.501543045043945
      ],
      [
        "▁lose",
        -9.502408981323242
      ],
      [
        "▁card",
        -9.503335952758789
      ],
      [
        "tially",
        -9.504414558410645
      ],
      [
        "ق",
        -9.50486946105957
      ],
      [
        "breath",
        -9.505594253540039
      ],
      [
        "▁Ne",
        -9.506277084350586
      ],
      [
        "▁Har",
        -9.506720542907715
      ],
      [
        "▁tried",
        -9.507039070129395
      ],
      [
        "wy",
        -9.508370399475098
      ],
      [
        "▁decid",
        -9.508963584899902
      ],
      [
        "▁color",
        -9.509623527526855
      ],
      [
        "▁upon",
        -9.510516166687012
      ],
      [
        "▁mar",
        -9.512139320373535
      ],
      [
        "wood",
        -9.512967109680176
      ],
      [
        "▁bill",
        -9.513838768005371
      ],
      [
        "▁vers",
        -9.513875007629395
      ],
      [
        "bl",
        -9.513968467712402
      ],
      [
        "▁table",
        -9.514453887939453
      ],
      [
        "▁dad",
        -9.514573097229004
      ],
      [
        "ality",
        -9.515373229980469
      ],
      [
        "du",
        -9.515666961669922
      ],
      [
        "▁price",
        -9.516672134399414
      ],
      [
        "qua",
        -9.51689338684082
      ],
      [
        "▁qual",
        -9.517621994018555
      ],
      [
        "series",
        -9.51822566986084
      ],
      [
        "▁pain",
        -9.51880931854248
      ],
      [
        "impact",
        -9.520054817199707
      ],
      [
        "▁opera",
        -9.52074909210205
      ],
      [
        "fer",
        -9.52340030670166
      ],
      [
        "▁broth",
        -9.525179862976074
      ],
      [
        "▁sitt",
        -9.525618553161621
      ],
      [
        "▁nu",
        -9.52674674987793
      ],
      [
        "▁enter",
        -9.526768684387207
      ],
      [
        "▁stick",
        -9.527190208435059
      ],
      [
        "▁act",
        -9.52748966217041
      ],
      [
        "bor",
        -9.528085708618164
      ],
      [
        "▁conf",
        -9.529946327209473
      ],
      [
        "▁Car",
        -9.530797004699707
      ],
      [
        "ium",
        -9.530998229980469
      ],
      [
        "dic",
        -9.531200408935547
      ],
      [
        "anyone",
        -9.531356811523438
      ],
      [
        "▁Bu",
        -9.532878875732422
      ],
      [
        "▁terri",
        -9.53305435180664
      ],
      [
        "▁treat",
        -9.533828735351562
      ],
      [
        "common",
        -9.534955978393555
      ],
      [
        "▁Did",
        -9.535140991210938
      ],
      [
        "ercent",
        -9.535236358642578
      ],
      [
        "▁wife",
        -9.535518646240234
      ],
      [
        "▁ب",
        -9.53854751586914
      ],
      [
        "▁spot",
        -9.539159774780273
      ],
      [
        "ute",
        -9.540247917175293
      ],
      [
        "▁blood",
        -9.540822982788086
      ],
      [
        "▁polit",
        -9.542089462280273
      ],
      [
        "▁natur",
        -9.543805122375488
      ],
      [
        "▁atten",
        -9.544745445251465
      ],
      [
        "raight",
        -9.54609203338623
      ],
      [
        "tu",
        -9.546097755432129
      ],
      [
        "т",
        -9.54770278930664
      ],
      [
        "▁bunch",
        -9.547865867614746
      ],
      [
        "nment",
        -9.547986030578613
      ],
      [
        ",\"",
        -9.548636436462402
      ],
      [
        "▁cultu",
        -9.549612045288086
      ],
      [
        "▁truth",
        -9.550116539001465
      ],
      [
        "inly",
        -9.55191707611084
      ],
      [
        "▁round",
        -9.552741050720215
      ],
      [
        "▁wall",
        -9.554384231567383
      ],
      [
        "▁beat",
        -9.555932998657227
      ],
      [
        "▁safe",
        -9.556070327758789
      ],
      [
        "▁store",
        -9.557929039001465
      ],
      [
        "onnect",
        -9.55828857421875
      ],
      [
        "▁email",
        -9.558768272399902
      ],
      [
        "ف",
        -9.56057071685791
      ],
      [
        "▁den",
        -9.56119441986084
      ],
      [
        "▁gr",
        -9.561676979064941
      ],
      [
        "ray",
        -9.563387870788574
      ],
      [
        "planet",
        -9.565610885620117
      ],
      [
        "ה",
        -9.565816879272461
      ],
      [
        "actice",
        -9.56598949432373
      ],
      [
        "▁stage",
        -9.569098472595215
      ],
      [
        "ledge",
        -9.570317268371582
      ],
      [
        "ran",
        -9.571011543273926
      ],
      [
        "▁late",
        -9.573040962219238
      ],
      [
        "ش",
        -9.5733003616333
      ],
      [
        "▁Du",
        -9.574204444885254
      ],
      [
        "▁cont",
        -9.576539993286133
      ],
      [
        "rage",
        -9.577510833740234
      ],
      [
        "gy",
        -9.577733039855957
      ],
      [
        "que",
        -9.579856872558594
      ],
      [
        "pping",
        -9.580473899841309
      ],
      [
        "ja",
        -9.58115291595459
      ],
      [
        "her",
        -9.581399917602539
      ],
      [
        "ham",
        -9.581884384155273
      ],
      [
        "▁wear",
        -9.583069801330566
      ],
      [
        "degree",
        -9.583757400512695
      ],
      [
        "▁role",
        -9.584003448486328
      ],
      [
        "▁gover",
        -9.584391593933105
      ],
      [
        "▁prote",
        -9.586602210998535
      ],
      [
        "▁pot",
        -9.587722778320312
      ],
      [
        "orrect",
        -9.587873458862305
      ],
      [
        "▁scene",
        -9.588967323303223
      ],
      [
        "▁Ki",
        -9.589038848876953
      ],
      [
        "return",
        -9.590897560119629
      ],
      [
        "▁Mu",
        -9.591329574584961
      ],
      [
        "▁plant",
        -9.591662406921387
      ],
      [
        "len",
        -9.592211723327637
      ],
      [
        "▁nine",
        -9.592400550842285
      ],
      [
        "▁shoot",
        -9.59289836883545
      ],
      [
        "▁study",
        -9.593313217163086
      ],
      [
        "nymore",
        -9.593546867370605
      ],
      [
        "▁band",
        -9.59363079071045
      ],
      [
        "cle",
        -9.59450626373291
      ],
      [
        "▁son",
        -9.594846725463867
      ],
      [
        "tually",
        -9.595165252685547
      ],
      [
        "oc",
        -9.596518516540527
      ],
      [
        "ink",
        -9.597445487976074
      ],
      [
        "▁feed",
        -9.59815502166748
      ],
      [
        "▁rate",
        -9.59876823425293
      ],
      [
        "▁faith",
        -9.600125312805176
      ],
      [
        "▁cell",
        -9.60013198852539
      ],
      [
        "ec",
        -9.600286483764648
      ],
      [
        "▁earth",
        -9.60041332244873
      ],
      [
        "volved",
        -9.601034164428711
      ],
      [
        "ory",
        -9.601201057434082
      ],
      [
        "▁pri",
        -9.601423263549805
      ],
      [
        "ral",
        -9.602245330810547
      ],
      [
        "▁wa",
        -9.603468894958496
      ],
      [
        "period",
        -9.60350513458252
      ],
      [
        "▁paper",
        -9.604124069213867
      ],
      [
        "▁hole",
        -9.604816436767578
      ],
      [
        "office",
        -9.60515022277832
      ],
      [
        "▁audi",
        -9.605591773986816
      ],
      [
        "▁His",
        -9.605901718139648
      ],
      [
        "urpose",
        -9.606229782104492
      ],
      [
        "▁age",
        -9.60710620880127
      ],
      [
        "▁earli",
        -9.607839584350586
      ],
      [
        "▁wish",
        -9.608660697937012
      ],
      [
        "▁limit",
        -9.608819007873535
      ],
      [
        "eg",
        -9.61091136932373
      ],
      [
        "▁Of",
        -9.611836433410645
      ],
      [
        "normal",
        -9.611957550048828
      ],
      [
        "▁conne",
        -9.612325668334961
      ],
      [
        "cious",
        -9.612701416015625
      ],
      [
        "dustry",
        -9.613129615783691
      ],
      [
        "▁page",
        -9.613688468933105
      ],
      [
        "panies",
        -9.615263938903809
      ],
      [
        "zz",
        -9.615419387817383
      ],
      [
        "▁dude",
        -9.61575984954834
      ],
      [
        "▁fair",
        -9.616605758666992
      ],
      [
        "center",
        -9.618453979492188
      ],
      [
        "back",
        -9.618600845336914
      ],
      [
        "▁non",
        -9.61951732635498
      ],
      [
        "fa",
        -9.620133399963379
      ],
      [
        "istic",
        -9.620843887329102
      ],
      [
        "engine",
        -9.621585845947266
      ],
      [
        "▁local",
        -9.621711730957031
      ],
      [
        "became",
        -9.621801376342773
      ],
      [
        "cannot",
        -9.62216567993164
      ],
      [
        "direct",
        -9.624130249023438
      ],
      [
        "over",
        -9.624938011169434
      ],
      [
        "▁tree",
        -9.625069618225098
      ],
      [
        "▁mix",
        -9.625258445739746
      ],
      [
        "van",
        -9.625259399414062
      ],
      [
        "▁yo",
        -9.626197814941406
      ],
      [
        "▁model",
        -9.626543045043945
      ],
      [
        "wise",
        -9.627309799194336
      ],
      [
        "ex",
        -9.628133773803711
      ],
      [
        "▁quart",
        -9.629525184631348
      ],
      [
        "room",
        -9.630119323730469
      ],
      [
        "access",
        -9.630171775817871
      ],
      [
        "▁aren",
        -9.63112735748291
      ],
      [
        "▁Your",
        -9.631990432739258
      ],
      [
        "ile",
        -9.63232421875
      ],
      [
        "м",
        -9.633732795715332
      ],
      [
        "▁cy",
        -9.63390064239502
      ],
      [
        "▁slow",
        -9.63414192199707
      ],
      [
        "ective",
        -9.635130882263184
      ],
      [
        "tance",
        -9.63584041595459
      ],
      [
        "▁ident",
        -9.636628150939941
      ],
      [
        "low",
        -9.637642860412598
      ],
      [
        "▁Engl",
        -9.638734817504883
      ],
      [
        "▁li",
        -9.639229774475098
      ],
      [
        "▁feet",
        -9.63999080657959
      ],
      [
        "the",
        -9.642289161682129
      ],
      [
        "▁encou",
        -9.642325401306152
      ],
      [
        "▁Sha",
        -9.642536163330078
      ],
      [
        "forget",
        -9.642633438110352
      ],
      [
        "my",
        -9.644803047180176
      ],
      [
        "ko",
        -9.646860122680664
      ],
      [
        "▁pray",
        -9.647466659545898
      ],
      [
        "▁burn",
        -9.649913787841797
      ],
      [
        "ina",
        -9.650321960449219
      ],
      [
        "▁Ga",
        -9.651046752929688
      ],
      [
        "couldn",
        -9.652205467224121
      ],
      [
        "ek",
        -9.653759002685547
      ],
      [
        "▁drop",
        -9.65405559539795
      ],
      [
        "▁Even",
        -9.655414581298828
      ],
      [
        "▁War",
        -9.6554594039917
      ],
      [
        "ef",
        -9.65590763092041
      ],
      [
        "▁path",
        -9.656214714050293
      ],
      [
        "▁hang",
        -9.656817436218262
      ],
      [
        "▁Cha",
        -9.656923294067383
      ],
      [
        "ay",
        -9.65809440612793
      ],
      [
        "▁quote",
        -9.659514427185059
      ],
      [
        "▁hell",
        -9.659610748291016
      ],
      [
        "stress",
        -9.6611967086792
      ],
      [
        "▁Th",
        -9.66137409210205
      ],
      [
        "crease",
        -9.661754608154297
      ],
      [
        "rn",
        -9.66263484954834
      ],
      [
        "rticle",
        -9.663130760192871
      ],
      [
        "bottom",
        -9.663515090942383
      ],
      [
        "effect",
        -9.663614273071289
      ],
      [
        "▁Hu",
        -9.66423511505127
      ],
      [
        "▁marri",
        -9.664422988891602
      ],
      [
        "▁ext",
        -9.664436340332031
      ],
      [
        "▁hate",
        -9.664773941040039
      ],
      [
        "ier",
        -9.666439056396484
      ],
      [
        "▁alone",
        -9.666513442993164
      ],
      [
        "▁mine",
        -9.667889595031738
      ],
      [
        "ested",
        -9.66866683959961
      ],
      [
        "▁Good",
        -9.669190406799316
      ],
      [
        "alize",
        -9.669462203979492
      ],
      [
        "▁Pe",
        -9.670099258422852
      ],
      [
        "▁US",
        -9.671167373657227
      ],
      [
        "▁catch",
        -9.671882629394531
      ],
      [
        "sudden",
        -9.672216415405273
      ],
      [
        "choice",
        -9.672410011291504
      ],
      [
        "tar",
        -9.673001289367676
      ],
      [
        "▁X",
        -9.673397064208984
      ],
      [
        "▁explo",
        -9.673413276672363
      ],
      [
        "▁built",
        -9.675474166870117
      ],
      [
        "attack",
        -9.677810668945312
      ],
      [
        "▁risk",
        -9.677962303161621
      ],
      [
        "▁cross",
        -9.677979469299316
      ],
      [
        "ک",
        -9.67825698852539
      ],
      [
        "ju",
        -9.678667068481445
      ],
      [
        "lution",
        -9.680370330810547
      ],
      [
        "▁eye",
        -9.680672645568848
      ],
      [
        "▁gun",
        -9.680837631225586
      ],
      [
        "ash",
        -9.6810941696167
      ],
      [
        "▁Si",
        -9.681462287902832
      ],
      [
        "everal",
        -9.681543350219727
      ],
      [
        "▁pen",
        -9.683480262756348
      ],
      [
        "▁wanna",
        -9.683747291564941
      ],
      [
        "lor",
        -9.684992790222168
      ],
      [
        "U",
        -9.68535327911377
      ],
      [
        "beginn",
        -9.685479164123535
      ],
      [
        "▁grand",
        -9.68637466430664
      ],
      [
        "▁phys",
        -9.68679141998291
      ],
      [
        "▁photo",
        -9.686860084533691
      ],
      [
        "mit",
        -9.688801765441895
      ],
      [
        "ox",
        -9.689840316772461
      ],
      [
        "▁thro",
        -9.69028091430664
      ],
      [
        "ather",
        -9.691633224487305
      ],
      [
        "▁educa",
        -9.692315101623535
      ],
      [
        "tally",
        -9.692428588867188
      ],
      [
        "▁sport",
        -9.694089889526367
      ],
      [
        "д",
        -9.695698738098145
      ],
      [
        "▁El",
        -9.696224212646484
      ],
      [
        "▁avail",
        -9.696478843688965
      ],
      [
        "Christ",
        -9.698997497558594
      ],
      [
        "▁king",
        -9.700275421142578
      ],
      [
        "ó",
        -9.701098442077637
      ],
      [
        "idual",
        -9.701898574829102
      ],
      [
        "▁refer",
        -9.702362060546875
      ],
      [
        "▁near",
        -9.702634811401367
      ],
      [
        "struct",
        -9.703474044799805
      ],
      [
        "▁block",
        -9.703927040100098
      ],
      [
        "eth",
        -9.70551872253418
      ],
      [
        "▁size",
        -9.706526756286621
      ],
      [
        "ado",
        -9.707244873046875
      ],
      [
        "▁tu",
        -9.70842456817627
      ],
      [
        "▁blue",
        -9.709330558776855
      ],
      [
        "ians",
        -9.70950984954834
      ],
      [
        "▁hair",
        -9.712701797485352
      ],
      [
        "▁Wow",
        -9.71353530883789
      ],
      [
        "wouldn",
        -9.713675498962402
      ],
      [
        "turned",
        -9.713834762573242
      ],
      [
        "ants",
        -9.714234352111816
      ],
      [
        "▁books",
        -9.715872764587402
      ],
      [
        "л",
        -9.716533660888672
      ],
      [
        "kan",
        -9.717462539672852
      ],
      [
        "▁envir",
        -9.717784881591797
      ],
      [
        "terial",
        -9.718120574951172
      ],
      [
        "▁loved",
        -9.718969345092773
      ],
      [
        "▁York",
        -9.719944953918457
      ],
      [
        "▁town",
        -9.720175743103027
      ],
      [
        "▁fix",
        -9.72035026550293
      ],
      [
        "▁skill",
        -9.721322059631348
      ],
      [
        "ctions",
        -9.72209644317627
      ],
      [
        "▁party",
        -9.722453117370605
      ],
      [
        "▁Faceb",
        -9.723325729370117
      ],
      [
        "▁indiv",
        -9.723444938659668
      ],
      [
        "▁tend",
        -9.723479270935059
      ],
      [
        "tunate",
        -9.72500228881836
      ],
      [
        "tual",
        -9.727933883666992
      ],
      [
        "▁visit",
        -9.72862720489502
      ],
      [
        "א",
        -9.73007583618164
      ],
      [
        "▁hurt",
        -9.73007583618164
      ],
      [
        "rently",
        -9.73192310333252
      ],
      [
        "▁plat",
        -9.732077598571777
      ],
      [
        "ana",
        -9.732902526855469
      ],
      [
        "▁Gu",
        -9.733174324035645
      ],
      [
        "▁Uh",
        -9.733319282531738
      ],
      [
        "ontent",
        -9.733403205871582
      ],
      [
        "▁speed",
        -9.73346996307373
      ],
      [
        "weight",
        -9.733762741088867
      ],
      [
        "erhaps",
        -9.735224723815918
      ],
      [
        "ollege",
        -9.73665714263916
      ],
      [
        "ung",
        -9.736949920654297
      ],
      [
        "ky",
        -9.739045143127441
      ],
      [
        "▁argu",
        -9.740375518798828
      ],
      [
        "bigger",
        -9.742036819458008
      ],
      [
        "▁sea",
        -9.742565155029297
      ],
      [
        "cor",
        -9.74303913116455
      ],
      [
        "gular",
        -9.74307918548584
      ],
      [
        "▁aware",
        -9.743123054504395
      ],
      [
        "ib",
        -9.74317455291748
      ],
      [
        "merica",
        -9.743760108947754
      ],
      [
        "online",
        -9.747056007385254
      ],
      [
        "▁profe",
        -9.7500581741333
      ],
      [
        "▁Wi",
        -9.750246047973633
      ],
      [
        "atch",
        -9.750496864318848
      ],
      [
        "▁race",
        -9.750602722167969
      ],
      [
        "▁host",
        -9.751294136047363
      ],
      [
        "lation",
        -9.752449989318848
      ],
      [
        "▁Ri",
        -9.754128456115723
      ],
      [
        "option",
        -9.75422191619873
      ],
      [
        "hannel",
        -9.754450798034668
      ],
      [
        "dible",
        -9.755760192871094
      ],
      [
        "verage",
        -9.756254196166992
      ],
      [
        "cra",
        -9.756361961364746
      ],
      [
        "▁oppos",
        -9.75643253326416
      ],
      [
        "▁wrote",
        -9.756532669067383
      ],
      [
        "round",
        -9.756579399108887
      ],
      [
        "sarily",
        -9.757035255432129
      ],
      [
        "▁save",
        -9.757048606872559
      ],
      [
        "▁text",
        -9.757234573364258
      ],
      [
        "▁furth",
        -9.757269859313965
      ],
      [
        "ease",
        -9.757889747619629
      ],
      [
        "ة",
        -9.758129119873047
      ],
      [
        "▁cat",
        -9.758264541625977
      ],
      [
        "onment",
        -9.758491516113281
      ],
      [
        "ified",
        -9.759445190429688
      ],
      [
        "▁Ex",
        -9.759817123413086
      ],
      [
        "▁ship",
        -9.760437965393066
      ],
      [
        "accept",
        -9.76142692565918
      ],
      [
        "▁mis",
        -9.761713027954102
      ],
      [
        "atient",
        -9.762151718139648
      ],
      [
        "▁ele",
        -9.762874603271484
      ],
      [
        "▁By",
        -9.763901710510254
      ],
      [
        "uff",
        -9.764801979064941
      ],
      [
        "nybody",
        -9.765146255493164
      ],
      [
        "▁activ",
        -9.766569137573242
      ],
      [
        "work",
        -9.767642974853516
      ],
      [
        "Tube",
        -9.76783561706543
      ],
      [
        "off",
        -9.768280982971191
      ],
      [
        "▁bra",
        -9.770877838134766
      ],
      [
        "▁gotta",
        -9.773221969604492
      ],
      [
        "▁essen",
        -9.773236274719238
      ],
      [
        "▁organ",
        -9.773520469665527
      ],
      [
        "author",
        -9.77517318725586
      ],
      [
        "essure",
        -9.777778625488281
      ],
      [
        "▁devel",
        -9.777955055236816
      ],
      [
        "▁gas",
        -9.778109550476074
      ],
      [
        "review",
        -9.778618812561035
      ],
      [
        "hood",
        -9.779032707214355
      ],
      [
        "ganiza",
        -9.779346466064453
      ],
      [
        "▁kick",
        -9.780259132385254
      ],
      [
        "nter",
        -9.780973434448242
      ],
      [
        "▁radio",
        -9.781001091003418
      ],
      [
        "▁heat",
        -9.781617164611816
      ],
      [
        "▁fund",
        -9.781694412231445
      ],
      [
        "▁discu",
        -9.781829833984375
      ],
      [
        "ج",
        -9.781956672668457
      ],
      [
        "nefit",
        -9.783215522766113
      ],
      [
        "▁fra",
        -9.783334732055664
      ],
      [
        "mic",
        -9.783900260925293
      ],
      [
        "cro",
        -9.785663604736328
      ],
      [
        "▁mass",
        -9.788065910339355
      ],
      [
        "▁image",
        -9.78815746307373
      ],
      [
        "za",
        -9.788511276245117
      ],
      [
        "simply",
        -9.788826942443848
      ],
      [
        "▁Which",
        -9.789216995239258
      ],
      [
        "▁struc",
        -9.789774894714355
      ],
      [
        "affect",
        -9.790105819702148
      ],
      [
        "vel",
        -9.79013442993164
      ],
      [
        "▁laugh",
        -9.790526390075684
      ],
      [
        "achine",
        -9.790694236755371
      ],
      [
        "▁tax",
        -9.791321754455566
      ],
      [
        "charge",
        -9.793266296386719
      ],
      [
        "▁slash",
        -9.794378280639648
      ],
      [
        "▁bank",
        -9.79457950592041
      ],
      [
        "ban",
        -9.794783592224121
      ],
      [
        "▁See",
        -9.795280456542969
      ],
      [
        "nic",
        -9.795687675476074
      ],
      [
        "ל",
        -9.796050071716309
      ],
      [
        "▁cold",
        -9.796278953552246
      ],
      [
        "cul",
        -9.797404289245605
      ],
      [
        "▁apart",
        -9.797872543334961
      ],
      [
        "▁mess",
        -9.801264762878418
      ],
      [
        "▁Paul",
        -9.801401138305664
      ],
      [
        "People",
        -9.801894187927246
      ],
      [
        "▁scien",
        -9.805109024047852
      ],
      [
        "ties",
        -9.80539608001709
      ],
      [
        "come",
        -9.80688762664795
      ],
      [
        "screen",
        -9.806979179382324
      ],
      [
        "у",
        -9.807251930236816
      ],
      [
        "▁mid",
        -9.810304641723633
      ],
      [
        "iginal",
        -9.814031600952148
      ],
      [
        "ath",
        -9.814257621765137
      ],
      [
        "kin",
        -9.814712524414062
      ],
      [
        "▁langu",
        -9.815145492553711
      ],
      [
        "▁Fa",
        -9.816030502319336
      ],
      [
        "▁Su",
        -9.816306114196777
      ],
      [
        "▁shall",
        -9.8181791305542
      ],
      [
        "▁comm",
        -9.819071769714355
      ],
      [
        "includ",
        -9.819738388061523
      ],
      [
        "longer",
        -9.820608139038086
      ],
      [
        "ontinu",
        -9.820806503295898
      ],
      [
        "▁Col",
        -9.821048736572266
      ],
      [
        "α",
        -9.82120132446289
      ],
      [
        "▁term",
        -9.821939468383789
      ],
      [
        "ez",
        -9.82217025756836
      ],
      [
        "▁hat",
        -9.82271957397461
      ],
      [
        "▁kept",
        -9.822925567626953
      ],
      [
        "detail",
        -9.82410717010498
      ],
      [
        "ommend",
        -9.824295043945312
      ],
      [
        "ficial",
        -9.825002670288086
      ],
      [
        "lon",
        -9.825498580932617
      ],
      [
        "ew",
        -9.825504302978516
      ],
      [
        "▁topic",
        -9.825815200805664
      ],
      [
        "▁shar",
        -9.826598167419434
      ],
      [
        "use",
        -9.826918601989746
      ],
      [
        "▁Ru",
        -9.827040672302246
      ],
      [
        "▁TV",
        -9.829479217529297
      ],
      [
        "▁persp",
        -9.829874992370605
      ],
      [
        "sha",
        -9.831364631652832
      ],
      [
        "▁zero",
        -9.831670761108398
      ],
      [
        "▁trip",
        -9.832266807556152
      ],
      [
        "à",
        -9.832454681396484
      ],
      [
        "ik",
        -9.832542419433594
      ],
      [
        "▁press",
        -9.83255386352539
      ],
      [
        "dig",
        -9.832793235778809
      ],
      [
        "▁green",
        -9.833504676818848
      ],
      [
        "choose",
        -9.833712577819824
      ],
      [
        "etwork",
        -9.835243225097656
      ],
      [
        "▁Star",
        -9.835770606994629
      ],
      [
        "believ",
        -9.835813522338867
      ],
      [
        "remain",
        -9.83581829071045
      ],
      [
        "urface",
        -9.836164474487305
      ],
      [
        "▁fill",
        -9.837203979492188
      ],
      [
        "▁verse",
        -9.837578773498535
      ],
      [
        "▁pop",
        -9.837593078613281
      ],
      [
        "act",
        -9.837939262390137
      ],
      [
        "▁condi",
        -9.838601112365723
      ],
      [
        "United",
        -9.838619232177734
      ],
      [
        "▁bri",
        -9.839584350585938
      ],
      [
        "▁fish",
        -9.839962005615234
      ],
      [
        "▁Com",
        -9.841276168823242
      ],
      [
        "▁San",
        -9.842772483825684
      ],
      [
        "ect",
        -9.84339427947998
      ],
      [
        "▁sett",
        -9.843775749206543
      ],
      [
        "أ",
        -9.84487533569336
      ],
      [
        "bly",
        -9.845298767089844
      ],
      [
        "lease",
        -9.846741676330566
      ],
      [
        "▁soul",
        -9.848713874816895
      ],
      [
        "▁addi",
        -9.84918212890625
      ],
      [
        "▁opin",
        -9.851396560668945
      ],
      [
        "fense",
        -9.853272438049316
      ],
      [
        "▁featu",
        -9.853583335876465
      ],
      [
        "iment",
        -9.853619575500488
      ],
      [
        "for",
        -9.853842735290527
      ],
      [
        "▁wide",
        -9.854438781738281
      ],
      [
        "tian",
        -9.856575965881348
      ],
      [
        "ith",
        -9.856717109680176
      ],
      [
        "▁above",
        -9.85675048828125
      ],
      [
        "ue",
        -9.858016014099121
      ],
      [
        "ा",
        -9.858460426330566
      ],
      [
        "remind",
        -9.858540534973145
      ],
      [
        "▁Get",
        -9.859617233276367
      ],
      [
        "camera",
        -9.860365867614746
      ],
      [
        "street",
        -9.86094856262207
      ],
      [
        "▁partn",
        -9.861285209655762
      ],
      [
        "▁appr",
        -9.86130142211914
      ],
      [
        "▁sex",
        -9.861745834350586
      ],
      [
        "alized",
        -9.862457275390625
      ],
      [
        "▁worry",
        -9.86273193359375
      ],
      [
        "ible",
        -9.863109588623047
      ],
      [
        "ership",
        -9.863546371459961
      ],
      [
        "▁wh",
        -9.863916397094727
      ],
      [
        "tantly",
        -9.864358901977539
      ],
      [
        "▁wild",
        -9.864824295043945
      ],
      [
        "iverse",
        -9.865660667419434
      ],
      [
        "place",
        -9.8657865524292
      ],
      [
        "▁lower",
        -9.866541862487793
      ],
      [
        "▁inten",
        -9.86776351928711
      ],
      [
        "▁deliv",
        -9.86785888671875
      ],
      [
        "▁moved",
        -9.868019104003906
      ],
      [
        "▁är",
        -9.868229866027832
      ],
      [
        "▁separ",
        -9.86890697479248
      ],
      [
        "bra",
        -9.869545936584473
      ],
      [
        "▁Bar",
        -9.86987590789795
      ],
      [
        "Q",
        -9.87055778503418
      ],
      [
        "▁blow",
        -9.871233940124512
      ],
      [
        "▁tough",
        -9.872020721435547
      ],
      [
        "▁date",
        -9.872201919555664
      ],
      [
        "stream",
        -9.872364044189453
      ],
      [
        "▁fly",
        -9.873198509216309
      ],
      [
        "ome",
        -9.873790740966797
      ],
      [
        "ately",
        -9.875539779663086
      ],
      [
        "comput",
        -9.876399040222168
      ],
      [
        "▁bed",
        -9.877206802368164
      ],
      [
        "career",
        -9.878140449523926
      ],
      [
        "▁stra",
        -9.878450393676758
      ],
      [
        "press",
        -9.878798484802246
      ],
      [
        "▁Pr",
        -9.879388809204102
      ],
      [
        "je",
        -9.879964828491211
      ],
      [
        "▁sat",
        -9.881732940673828
      ],
      [
        "mar",
        -9.88222599029541
      ],
      [
        "pound",
        -9.88345718383789
      ],
      [
        "ssful",
        -9.88361930847168
      ],
      [
        "K",
        -9.885997772216797
      ],
      [
        "umb",
        -9.886067390441895
      ],
      [
        "▁tip",
        -9.886817932128906
      ],
      [
        "▁ended",
        -9.887141227722168
      ],
      [
        "▁gift",
        -9.887568473815918
      ],
      [
        "fr",
        -9.88810920715332
      ],
      [
        "ively",
        -9.888528823852539
      ],
      [
        "▁immed",
        -9.890312194824219
      ],
      [
        "sight",
        -9.891072273254395
      ],
      [
        "tmas",
        -9.891350746154785
      ],
      [
        "izing",
        -9.892232894897461
      ],
      [
        "▁dan",
        -9.892439842224121
      ],
      [
        "▁wind",
        -9.894176483154297
      ],
      [
        "▁par",
        -9.895620346069336
      ],
      [
        "cept",
        -9.902034759521484
      ],
      [
        "stant",
        -9.902400016784668
      ],
      [
        "mmer",
        -9.902860641479492
      ],
      [
        "▁wow",
        -9.904047966003418
      ],
      [
        "launch",
        -9.905645370483398
      ],
      [
        "▁folks",
        -9.90599250793457
      ],
      [
        "▁wave",
        -9.906126976013184
      ],
      [
        "log",
        -9.906353950500488
      ],
      [
        "▁leg",
        -9.906429290771484
      ],
      [
        "▁carry",
        -9.907379150390625
      ],
      [
        "easier",
        -9.909173011779785
      ],
      [
        "evious",
        -9.911510467529297
      ],
      [
        "tage",
        -9.912466049194336
      ],
      [
        "rength",
        -9.912664413452148
      ],
      [
        "fl",
        -9.91328239440918
      ],
      [
        "credit",
        -9.914097785949707
      ],
      [
        "▁total",
        -9.914595603942871
      ],
      [
        "▁pack",
        -9.915796279907227
      ],
      [
        "summer",
        -9.917508125305176
      ],
      [
        "▁En",
        -9.917713165283203
      ],
      [
        "▁Come",
        -9.918974876403809
      ],
      [
        "lip",
        -9.919098854064941
      ],
      [
        "▁minus",
        -9.919347763061523
      ],
      [
        "▁sy",
        -9.919524192810059
      ],
      [
        "▁micro",
        -9.919597625732422
      ],
      [
        "eciate",
        -9.920467376708984
      ],
      [
        "▁After",
        -9.922719955444336
      ],
      [
        "▁anti",
        -9.923659324645996
      ],
      [
        "▁weren",
        -9.92367172241211
      ],
      [
        "lk",
        -9.924665451049805
      ],
      [
        "rsity",
        -9.926215171813965
      ],
      [
        "▁First",
        -9.926276206970215
      ],
      [
        "▁King",
        -9.927388191223145
      ],
      [
        "pper",
        -9.927520751953125
      ],
      [
        "▁mark",
        -9.928973197937012
      ],
      [
        "▁birth",
        -9.931220054626465
      ],
      [
        "р",
        -9.931319236755371
      ],
      [
        "▁Jack",
        -9.932406425476074
      ],
      [
        "▁club",
        -9.933923721313477
      ],
      [
        "switch",
        -9.93446159362793
      ],
      [
        "▁code",
        -9.935473442077637
      ],
      [
        "▁Ge",
        -9.93659496307373
      ],
      [
        "af",
        -9.936867713928223
      ],
      [
        "lay",
        -9.937019348144531
      ],
      [
        "plain",
        -9.937148094177246
      ],
      [
        "itch",
        -9.937833786010742
      ],
      [
        "▁bro",
        -9.938887596130371
      ],
      [
        "gotten",
        -9.938961029052734
      ],
      [
        "plete",
        -9.939597129821777
      ],
      [
        "itself",
        -9.940816879272461
      ],
      [
        "player",
        -9.941915512084961
      ],
      [
        "letter",
        -9.94326114654541
      ],
      [
        "▁shift",
        -9.943703651428223
      ],
      [
        "▁celeb",
        -9.944153785705566
      ],
      [
        "▁Have",
        -9.944408416748047
      ],
      [
        "▁David",
        -9.944523811340332
      ],
      [
        "tastic",
        -9.945112228393555
      ],
      [
        "ddi",
        -9.945878982543945
      ],
      [
        "doctor",
        -9.945939064025879
      ],
      [
        "cently",
        -9.94595718383789
      ],
      [
        "▁bless",
        -9.94775104522705
      ],
      [
        "usband",
        -9.948332786560059
      ],
      [
        "lement",
        -9.94902515411377
      ],
      [
        "▁rid",
        -9.94959545135498
      ],
      [
        "▁effec",
        -9.949902534484863
      ],
      [
        "▁compl",
        -9.950129508972168
      ],
      [
        "▁guest",
        -9.950855255126953
      ],
      [
        "▁Joe",
        -9.952438354492188
      ],
      [
        "▁Our",
        -9.953227996826172
      ],
      [
        "craft",
        -9.954538345336914
      ],
      [
        "down",
        -9.954874992370605
      ],
      [
        "▁cook",
        -9.95514965057373
      ],
      [
        "nature",
        -9.956022262573242
      ],
      [
        "regard",
        -9.95604419708252
      ],
      [
        "▁loca",
        -9.956280708312988
      ],
      [
        "omfort",
        -9.956418991088867
      ],
      [
        "▁score",
        -9.956646919250488
      ],
      [
        "ekend",
        -9.95778751373291
      ],
      [
        "▁paid",
        -9.958367347717285
      ],
      [
        "ix",
        -9.958584785461426
      ],
      [
        "▁Gra",
        -9.958686828613281
      ],
      [
        "▁horse",
        -9.959284782409668
      ],
      [
        "▁stat",
        -9.959702491760254
      ],
      [
        "ternal",
        -9.960081100463867
      ],
      [
        "fresh",
        -9.960569381713867
      ],
      [
        "▁trade",
        -9.961538314819336
      ],
      [
        "▁colle",
        -9.961553573608398
      ],
      [
        "higher",
        -9.96181583404541
      ],
      [
        "▁spiri",
        -9.962003707885742
      ],
      [
        "▁sad",
        -9.962324142456055
      ],
      [
        "▁medic",
        -9.962325096130371
      ],
      [
        "▁sales",
        -9.962642669677734
      ],
      [
        "▁till",
        -9.963162422180176
      ],
      [
        "daught",
        -9.963242530822754
      ],
      [
        "league",
        -9.963614463806152
      ],
      [
        "meters",
        -9.963699340820312
      ],
      [
        "zi",
        -9.963703155517578
      ],
      [
        "pu",
        -9.965476989746094
      ],
      [
        "uc",
        -9.965785026550293
      ],
      [
        "ان",
        -9.965865135192871
      ],
      [
        "▁Insta",
        -9.966387748718262
      ],
      [
        "air",
        -9.967612266540527
      ],
      [
        "▁smart",
        -9.967663764953613
      ],
      [
        "ame",
        -9.968646049499512
      ],
      [
        "▁floor",
        -9.96866226196289
      ],
      [
        "▁Twitt",
        -9.970035552978516
      ],
      [
        "▁unc",
        -9.97048282623291
      ],
      [
        "rated",
        -9.970625877380371
      ],
      [
        "▁driv",
        -9.97124195098877
      ],
      [
        "▁peace",
        -9.972053527832031
      ],
      [
        "ino",
        -9.972740173339844
      ],
      [
        "▁dia",
        -9.9753999710083
      ],
      [
        "▁Ch",
        -9.976434707641602
      ],
      [
        "tribut",
        -9.976941108703613
      ],
      [
        "▁Ni",
        -9.977397918701172
      ],
      [
        "▁Ke",
        -9.979132652282715
      ],
      [
        "▁tour",
        -9.980440139770508
      ],
      [
        "uch",
        -9.984177589416504
      ],
      [
        "cted",
        -9.984688758850098
      ],
      [
        "▁flu",
        -9.984945297241211
      ],
      [
        "Europe",
        -9.984996795654297
      ],
      [
        "erious",
        -9.985994338989258
      ],
      [
        "window",
        -9.987778663635254
      ],
      [
        "secret",
        -9.988755226135254
      ],
      [
        "althy",
        -9.989420890808105
      ],
      [
        "double",
        -9.989727020263672
      ],
      [
        "▁print",
        -9.989923477172852
      ],
      [
        "▁album",
        -9.994110107421875
      ],
      [
        "stood",
        -9.99413013458252
      ],
      [
        "▁spent",
        -9.994664192199707
      ],
      [
        "Anyway",
        -9.994829177856445
      ],
      [
        "rouble",
        -9.995696067810059
      ],
      [
        "▁born",
        -9.995747566223145
      ],
      [
        "▁Absol",
        -9.995820045471191
      ],
      [
        "unk",
        -9.99606990814209
      ],
      [
        "▁chapt",
        -9.997347831726074
      ],
      [
        "ku",
        -9.998237609863281
      ],
      [
        "▁min",
        -9.998613357543945
      ],
      [
        "rity",
        -9.99901008605957
      ],
      [
        "provid",
        -10.00113296508789
      ],
      [
        "▁measu",
        -10.001266479492188
      ],
      [
        "rant",
        -10.002668380737305
      ],
      [
        "versus",
        -10.003643989562988
      ],
      [
        "police",
        -10.004751205444336
      ],
      [
        "factor",
        -10.005300521850586
      ],
      [
        "▁vote",
        -10.005748748779297
      ],
      [
        "bin",
        -10.006091117858887
      ],
      [
        "how",
        -10.006845474243164
      ],
      [
        "lright",
        -10.006864547729492
      ],
      [
        "hor",
        -10.009695053100586
      ],
      [
        "ov",
        -10.010833740234375
      ],
      [
        "effort",
        -10.011256217956543
      ],
      [
        "▁Earth",
        -10.011488914489746
      ],
      [
        "▁older",
        -10.011619567871094
      ],
      [
        "▁så",
        -10.013259887695312
      ],
      [
        "▁South",
        -10.013427734375
      ],
      [
        "▁lie",
        -10.013652801513672
      ],
      [
        "roduct",
        -10.014901161193848
      ],
      [
        "خ",
        -10.015073776245117
      ],
      [
        "rovide",
        -10.01561450958252
      ],
      [
        "▁Tom",
        -10.015673637390137
      ],
      [
        "▁Pre",
        -10.01659870147705
      ],
      [
        "ddress",
        -10.016826629638672
      ],
      [
        "tune",
        -10.016863822937012
      ],
      [
        "object",
        -10.016952514648438
      ],
      [
        "▁notes",
        -10.018004417419434
      ],
      [
        "▁shut",
        -10.01895523071289
      ],
      [
        "spread",
        -10.020230293273926
      ],
      [
        "▁Mon",
        -10.020455360412598
      ],
      [
        "master",
        -10.02111530303955
      ],
      [
        "▁began",
        -10.021138191223145
      ],
      [
        "▁mae",
        -10.021315574645996
      ],
      [
        "▁court",
        -10.021502494812012
      ],
      [
        "target",
        -10.022071838378906
      ],
      [
        "morrow",
        -10.02212142944336
      ],
      [
        "▁fat",
        -10.023024559020996
      ],
      [
        "▁shape",
        -10.024040222167969
      ],
      [
        "▁lay",
        -10.02407169342041
      ],
      [
        "derful",
        -10.024131774902344
      ],
      [
        "▁tempe",
        -10.024544715881348
      ],
      [
        "▁plann",
        -10.024694442749023
      ],
      [
        "▁Lu",
        -10.025320053100586
      ],
      [
        "▁truly",
        -10.025788307189941
      ],
      [
        "▁poor",
        -10.025917053222656
      ],
      [
        "▁oil",
        -10.027077674865723
      ],
      [
        "terday",
        -10.027290344238281
      ],
      [
        "dding",
        -10.028390884399414
      ],
      [
        "roduce",
        -10.02885627746582
      ],
      [
        "notice",
        -10.029275894165039
      ],
      [
        "ump",
        -10.030826568603516
      ],
      [
        "▁style",
        -10.031364440917969
      ],
      [
        "▁Am",
        -10.031371116638184
      ],
      [
        "ancial",
        -10.031991958618164
      ],
      [
        "▁sweet",
        -10.032469749450684
      ],
      [
        "ש",
        -10.032954216003418
      ],
      [
        "▁stopp",
        -10.034064292907715
      ],
      [
        "spond",
        -10.034988403320312
      ],
      [
        "gon",
        -10.035453796386719
      ],
      [
        "mate",
        -10.035539627075195
      ],
      [
        "▁ran",
        -10.036310195922852
      ],
      [
        "▁Fin",
        -10.036548614501953
      ],
      [
        "cha",
        -10.03824520111084
      ],
      [
        "gue",
        -10.04012393951416
      ],
      [
        "▁pour",
        -10.040270805358887
      ],
      [
        "▁Austr",
        -10.040841102600098
      ],
      [
        "refore",
        -10.041781425476074
      ],
      [
        "▁mouth",
        -10.04231071472168
      ],
      [
        "▁disa",
        -10.04267692565918
      ],
      [
        "▁Pro",
        -10.043288230895996
      ],
      [
        "▁pan",
        -10.0436429977417
      ],
      [
        "▁fell",
        -10.04405403137207
      ],
      [
        "ique",
        -10.044717788696289
      ],
      [
        "lie",
        -10.04494571685791
      ],
      [
        "spirit",
        -10.046067237854004
      ],
      [
        "▁Those",
        -10.046113014221191
      ],
      [
        "ock",
        -10.046306610107422
      ],
      [
        "ughout",
        -10.046684265136719
      ],
      [
        "advice",
        -10.048791885375977
      ],
      [
        "bought",
        -10.048879623413086
      ],
      [
        "sister",
        -10.050151824951172
      ],
      [
        "yard",
        -10.05057144165039
      ],
      [
        "▁click",
        -10.051811218261719
      ],
      [
        "▁milli",
        -10.052291870117188
      ],
      [
        "▁bag",
        -10.0529203414917
      ],
      [
        "board",
        -10.05322265625
      ],
      [
        "▁glad",
        -10.05324935913086
      ],
      [
        "े",
        -10.053581237792969
      ],
      [
        "▁expen",
        -10.055469512939453
      ],
      [
        "▁typic",
        -10.055550575256348
      ],
      [
        "beyond",
        -10.056478500366211
      ],
      [
        "clude",
        -10.0567045211792
      ],
      [
        "▁tele",
        -10.056709289550781
      ],
      [
        "corner",
        -10.056848526000977
      ],
      [
        "▁stock",
        -10.057112693786621
      ],
      [
        "▁goals",
        -10.0572509765625
      ],
      [
        "?\"",
        -10.057263374328613
      ],
      [
        "ontact",
        -10.058298110961914
      ],
      [
        "▁onto",
        -10.05924129486084
      ],
      [
        "nobody",
        -10.060246467590332
      ],
      [
        "▁ultim",
        -10.060295104980469
      ],
      [
        "▁skin",
        -10.061016082763672
      ],
      [
        "▁unit",
        -10.061964988708496
      ],
      [
        "▁signi",
        -10.062111854553223
      ],
      [
        "ö",
        -10.062374114990234
      ],
      [
        "▁gw",
        -10.062604904174805
      ],
      [
        "rick",
        -10.062727928161621
      ],
      [
        "lam",
        -10.06441879272461
      ],
      [
        "nge",
        -10.064605712890625
      ],
      [
        "idence",
        -10.064746856689453
      ],
      [
        "▁site",
        -10.065878868103027
      ],
      [
        "operty",
        -10.066079139709473
      ],
      [
        "losing",
        -10.066174507141113
      ],
      [
        "finger",
        -10.06749153137207
      ],
      [
        "▁due",
        -10.067901611328125
      ],
      [
        "▁Yep",
        -10.06817626953125
      ],
      [
        "▁tradi",
        -10.068504333496094
      ],
      [
        "oblems",
        -10.069104194641113
      ],
      [
        "▁died",
        -10.069435119628906
      ],
      [
        "▁note",
        -10.070813179016113
      ],
      [
        "ç",
        -10.072113037109375
      ],
      [
        "Google",
        -10.07288646697998
      ],
      [
        "▁root",
        -10.07401180267334
      ],
      [
        "cycl",
        -10.074360847473145
      ],
      [
        "▁Again",
        -10.075601577758789
      ],
      [
        "▁moon",
        -10.07696533203125
      ],
      [
        "actual",
        -10.07731819152832
      ],
      [
        "▁joy",
        -10.077448844909668
      ],
      [
        "icated",
        -10.078292846679688
      ],
      [
        "▁spin",
        -10.078655242919922
      ],
      [
        "▁Also",
        -10.078779220581055
      ],
      [
        "ز",
        -10.081624984741211
      ],
      [
        "ponent",
        -10.0818510055542
      ],
      [
        "cience",
        -10.082518577575684
      ],
      [
        "az",
        -10.08304214477539
      ],
      [
        "ev",
        -10.083252906799316
      ],
      [
        "ternet",
        -10.08480453491211
      ],
      [
        "▁digit",
        -10.0865478515625
      ],
      [
        "meter",
        -10.087221145629883
      ],
      [
        "▁title",
        -10.087566375732422
      ],
      [
        "hold",
        -10.087953567504883
      ],
      [
        "▁perfo",
        -10.088130950927734
      ],
      [
        "▁COVID",
        -10.088394165039062
      ],
      [
        "iately",
        -10.088464736938477
      ],
      [
        "sponse",
        -10.089836120605469
      ],
      [
        "ר",
        -10.093354225158691
      ],
      [
        "bur",
        -10.093548774719238
      ],
      [
        "battle",
        -10.094565391540527
      ],
      [
        "proper",
        -10.095444679260254
      ],
      [
        "unique",
        -10.096156120300293
      ],
      [
        "rie",
        -10.09699821472168
      ],
      [
        "▁Va",
        -10.097256660461426
      ],
      [
        "▁park",
        -10.0979585647583
      ],
      [
        "▁evid",
        -10.098162651062012
      ],
      [
        "udents",
        -10.098260879516602
      ],
      [
        "caught",
        -10.099212646484375
      ],
      [
        "▁Exact",
        -10.099221229553223
      ],
      [
        "ney",
        -10.09926986694336
      ],
      [
        "▁Mae",
        -10.099285125732422
      ],
      [
        "lap",
        -10.099358558654785
      ],
      [
        "▁auto",
        -10.099874496459961
      ],
      [
        "▁Bible",
        -10.100229263305664
      ],
      [
        "▁Tra",
        -10.100936889648438
      ],
      [
        "_",
        -10.101971626281738
      ],
      [
        "▁Trump",
        -10.103963851928711
      ],
      [
        "gri",
        -10.104196548461914
      ],
      [
        "rmance",
        -10.10422420501709
      ],
      [
        "▁secur",
        -10.104419708251953
      ],
      [
        "ong",
        -10.104751586914062
      ],
      [
        "▁expre",
        -10.104999542236328
      ],
      [
        "▁joke",
        -10.106304168701172
      ],
      [
        "▁World",
        -10.107054710388184
      ],
      [
        "▁May",
        -10.108388900756836
      ],
      [
        "ciety",
        -10.108838081359863
      ],
      [
        "▁paint",
        -10.10971736907959
      ],
      [
        "ão",
        -10.109980583190918
      ],
      [
        "▁warm",
        -10.110660552978516
      ],
      [
        "ission",
        -10.110753059387207
      ],
      [
        "specif",
        -10.111449241638184
      ],
      [
        "tz",
        -10.111836433410645
      ],
      [
        "ich",
        -10.112691879272461
      ],
      [
        "▁Dan",
        -10.114439010620117
      ],
      [
        "▁stuck",
        -10.114778518676758
      ],
      [
        "growth",
        -10.115043640136719
      ],
      [
        "neighb",
        -10.115317344665527
      ],
      [
        "▁lived",
        -10.11565113067627
      ],
      [
        "clock",
        -10.116480827331543
      ],
      [
        "▁James",
        -10.116738319396973
      ],
      [
        "observ",
        -10.117159843444824
      ],
      [
        "cri",
        -10.11731243133545
      ],
      [
        "termin",
        -10.118310928344727
      ],
      [
        "nu",
        -10.119078636169434
      ],
      [
        "titude",
        -10.11942195892334
      ],
      [
        "lum",
        -10.120079040527344
      ],
      [
        "н",
        -10.121515274047852
      ],
      [
        "▁dr",
        -10.121786117553711
      ],
      [
        "▁appar",
        -10.122537612915039
      ],
      [
        "▁sick",
        -10.122579574584961
      ],
      [
        "vin",
        -10.122815132141113
      ],
      [
        "sional",
        -10.12287425994873
      ],
      [
        "matic",
        -10.123496055603027
      ],
      [
        "win",
        -10.12365436553955
      ],
      [
        "prise",
        -10.12387752532959
      ],
      [
        "▁range",
        -10.124391555786133
      ],
      [
        "▁popul",
        -10.124507904052734
      ],
      [
        "suffer",
        -10.124533653259277
      ],
      [
        "▁Pi",
        -10.124735832214355
      ],
      [
        "▁farm",
        -10.125048637390137
      ],
      [
        "ari",
        -10.125086784362793
      ],
      [
        "▁vari",
        -10.125594139099121
      ],
      [
        "employ",
        -10.12563705444336
      ],
      [
        "▁Mc",
        -10.125757217407227
      ],
      [
        "ica",
        -10.125856399536133
      ],
      [
        "consum",
        -10.125958442687988
      ],
      [
        "▁volt",
        -10.12724494934082
      ],
      [
        "fla",
        -10.1274995803833
      ],
      [
        "▁viol",
        -10.129425048828125
      ],
      [
        "▁Her",
        -10.129803657531738
      ],
      [
        "rge",
        -10.130268096923828
      ],
      [
        "rating",
        -10.130616188049316
      ],
      [
        "▁och",
        -10.130819320678711
      ],
      [
        "מ",
        -10.13093090057373
      ],
      [
        "▁glass",
        -10.131475448608398
      ],
      [
        "nie",
        -10.132033348083496
      ],
      [
        "▁Sam",
        -10.13340950012207
      ],
      [
        "▁heavy",
        -10.134556770324707
      ],
      [
        "nny",
        -10.134685516357422
      ],
      [
        "▁rain",
        -10.134969711303711
      ],
      [
        "▁Ti",
        -10.135025024414062
      ],
      [
        "ssible",
        -10.13542366027832
      ],
      [
        "▁jag",
        -10.13565444946289
      ],
      [
        "ably",
        -10.136154174804688
      ],
      [
        "easily",
        -10.13758373260498
      ],
      [
        "▁edge",
        -10.138204574584961
      ],
      [
        "German",
        -10.139602661132812
      ],
      [
        "▁bear",
        -10.139653205871582
      ],
      [
        "▁loss",
        -10.14111328125
      ],
      [
        "ceive",
        -10.141904830932617
      ],
      [
        "ficant",
        -10.14231014251709
      ],
      [
        "nesses",
        -10.142776489257812
      ],
      [
        "▁trick",
        -10.14448356628418
      ],
      [
        "▁drug",
        -10.14449691772461
      ],
      [
        "▁worse",
        -10.145928382873535
      ],
      [
        "▁magic",
        -10.146300315856934
      ],
      [
        "tant",
        -10.146368980407715
      ],
      [
        "active",
        -10.146578788757324
      ],
      [
        "play",
        -10.147043228149414
      ],
      [
        "ada",
        -10.147171020507812
      ],
      [
        "grade",
        -10.147198677062988
      ],
      [
        "ane",
        -10.148364067077637
      ],
      [
        "square",
        -10.148372650146484
      ],
      [
        "▁Bill",
        -10.150099754333496
      ],
      [
        "▁Sc",
        -10.150138854980469
      ],
      [
        "▁adult",
        -10.150797843933105
      ],
      [
        "▁camp",
        -10.151275634765625
      ],
      [
        "▁heal",
        -10.15200138092041
      ],
      [
        "▁ski",
        -10.15229320526123
      ],
      [
        "▁ride",
        -10.152454376220703
      ],
      [
        "▁worst",
        -10.152654647827148
      ],
      [
        "▁below",
        -10.154220581054688
      ],
      [
        "▁doubt",
        -10.154784202575684
      ],
      [
        "Qu",
        -10.15700626373291
      ],
      [
        "sses",
        -10.15715217590332
      ],
      [
        "▁scale",
        -10.158280372619629
      ],
      [
        "▁tight",
        -10.158331871032715
      ],
      [
        "▁exc",
        -10.159679412841797
      ],
      [
        "▁dive",
        -10.159948348999023
      ],
      [
        "▁massi",
        -10.160194396972656
      ],
      [
        "cover",
        -10.162125587463379
      ],
      [
        "▁notic",
        -10.162805557250977
      ],
      [
        "ב",
        -10.163251876831055
      ],
      [
        "ichael",
        -10.164036750793457
      ],
      [
        "cument",
        -10.165120124816895
      ],
      [
        "▁gain",
        -10.165534973144531
      ],
      [
        "acy",
        -10.16579818725586
      ],
      [
        "lished",
        -10.167566299438477
      ],
      [
        "▁Wal",
        -10.167583465576172
      ],
      [
        "▁prior",
        -10.167638778686523
      ],
      [
        "pen",
        -10.168702125549316
      ],
      [
        "centr",
        -10.169639587402344
      ],
      [
        "afraid",
        -10.170306205749512
      ],
      [
        "accord",
        -10.170836448669434
      ],
      [
        "trange",
        -10.17434310913086
      ],
      [
        "▁Ben",
        -10.174382209777832
      ],
      [
        "▁impor",
        -10.177399635314941
      ],
      [
        "▁frame",
        -10.178369522094727
      ],
      [
        "dri",
        -10.179755210876465
      ],
      [
        "▁Black",
        -10.180194854736328
      ],
      [
        "lig",
        -10.1827392578125
      ],
      [
        "desire",
        -10.182759284973145
      ],
      [
        "Friday",
        -10.183302879333496
      ],
      [
        "rature",
        -10.1835298538208
      ],
      [
        "▁dance",
        -10.183812141418457
      ],
      [
        "▁grew",
        -10.184454917907715
      ],
      [
        "ε",
        -10.18454360961914
      ],
      [
        "▁resis",
        -10.184781074523926
      ],
      [
        "handle",
        -10.185986518859863
      ],
      [
        "▁Cor",
        -10.1871976852417
      ],
      [
        "ת",
        -10.187911987304688
      ],
      [
        "opment",
        -10.189626693725586
      ],
      [
        "▁på",
        -10.189916610717773
      ],
      [
        "▁North",
        -10.191165924072266
      ],
      [
        "J",
        -10.191312789916992
      ],
      [
        "physic",
        -10.191861152648926
      ],
      [
        "munica",
        -10.191866874694824
      ],
      [
        "plane",
        -10.19206428527832
      ],
      [
        "strict",
        -10.192811965942383
      ],
      [
        "ttle",
        -10.193184852600098
      ],
      [
        "▁rich",
        -10.193625450134277
      ],
      [
        "rtable",
        -10.194138526916504
      ],
      [
        "ppoint",
        -10.194510459899902
      ],
      [
        "Sunday",
        -10.19520092010498
      ],
      [
        "▁pract",
        -10.195930480957031
      ],
      [
        "▁pin",
        -10.195956230163574
      ],
      [
        "year",
        -10.196964263916016
      ],
      [
        "▁wrap",
        -10.19772720336914
      ],
      [
        "▁habit",
        -10.200349807739258
      ],
      [
        "unless",
        -10.202239036560059
      ],
      [
        "▁sold",
        -10.202786445617676
      ],
      [
        "я",
        -10.202831268310547
      ],
      [
        "ο",
        -10.20422649383545
      ],
      [
        "▁lift",
        -10.205026626586914
      ],
      [
        "▁West",
        -10.205592155456543
      ],
      [
        "leader",
        -10.205972671508789
      ],
      [
        "▁blah",
        -10.206141471862793
      ],
      [
        "overed",
        -10.20697021484375
      ],
      [
        "▁tie",
        -10.207064628601074
      ],
      [
        "τ",
        -10.207271575927734
      ],
      [
        "▁broke",
        -10.20827865600586
      ],
      [
        "alia",
        -10.208494186401367
      ],
      [
        "rotect",
        -10.208569526672363
      ],
      [
        "क",
        -10.209202766418457
      ],
      [
        "ension",
        -10.209510803222656
      ],
      [
        "▁suck",
        -10.21154499053955
      ],
      [
        "ι",
        -10.211731910705566
      ],
      [
        "length",
        -10.212618827819824
      ],
      [
        "▁flat",
        -10.213066101074219
      ],
      [
        "talent",
        -10.213895797729492
      ],
      [
        "rivate",
        -10.215043067932129
      ],
      [
        "car",
        -10.21538257598877
      ],
      [
        "▁grab",
        -10.21570110321045
      ],
      [
        "▁integ",
        -10.216116905212402
      ],
      [
        "▁cloth",
        -10.217020034790039
      ],
      [
        "lit",
        -10.217181205749512
      ],
      [
        "▁broad",
        -10.218297004699707
      ],
      [
        "▁From",
        -10.219063758850098
      ],
      [
        "то",
        -10.219321250915527
      ],
      [
        "▁confe",
        -10.219537734985352
      ],
      [
        "region",
        -10.220168113708496
      ],
      [
        "romise",
        -10.222389221191406
      ],
      [
        "ہ",
        -10.22304916381836
      ],
      [
        "famous",
        -10.223468780517578
      ],
      [
        "sphere",
        -10.223977088928223
      ],
      [
        "▁dropp",
        -10.224064826965332
      ],
      [
        "▁seat",
        -10.22438907623291
      ],
      [
        "▁eu",
        -10.224940299987793
      ],
      [
        "▁apply",
        -10.225857734680176
      ],
      [
        "▁daily",
        -10.22654914855957
      ],
      [
        "decide",
        -10.22960376739502
      ],
      [
        "oedd",
        -10.229938507080078
      ],
      [
        "coffee",
        -10.2305908203125
      ],
      [
        "untain",
        -10.232213020324707
      ],
      [
        "▁Ko",
        -10.232414245605469
      ],
      [
        "▁Mark",
        -10.232718467712402
      ],
      [
        "havior",
        -10.232805252075195
      ],
      [
        "ando",
        -10.232845306396484
      ],
      [
        "▁relig",
        -10.232978820800781
      ],
      [
        "▁City",
        -10.23343563079834
      ],
      [
        "▁dress",
        -10.233484268188477
      ],
      [
        "▁among",
        -10.235831260681152
      ],
      [
        "▁lack",
        -10.235958099365234
      ],
      [
        "heaven",
        -10.236164093017578
      ],
      [
        "▁comfo",
        -10.237929344177246
      ],
      [
        "ologic",
        -10.237979888916016
      ],
      [
        "▁Mor",
        -10.2385835647583
      ],
      [
        "▁Mike",
        -10.238929748535156
      ],
      [
        "▁hynny",
        -10.239561080932617
      ],
      [
        "▁mad",
        -10.239850044250488
      ],
      [
        "▁owner",
        -10.241365432739258
      ],
      [
        "igh",
        -10.242547988891602
      ],
      [
        "▁motiv",
        -10.243488311767578
      ],
      [
        "ubject",
        -10.243498802185059
      ],
      [
        "▁figur",
        -10.24385929107666
      ],
      [
        "▁requi",
        -10.24590015411377
      ],
      [
        "▁norm",
        -10.245977401733398
      ],
      [
        "east",
        -10.248088836669922
      ],
      [
        "▁var",
        -10.248852729797363
      ],
      [
        "▁Great",
        -10.25070571899414
      ],
      [
        "of",
        -10.251041412353516
      ],
      [
        "▁East",
        -10.251087188720703
      ],
      [
        "▁guide",
        -10.251407623291016
      ],
      [
        "▁unfor",
        -10.251895904541016
      ],
      [
        "hospit",
        -10.251975059509277
      ],
      [
        "circle",
        -10.25223445892334
      ],
      [
        "mark",
        -10.252384185791016
      ],
      [
        "▁file",
        -10.25325870513916
      ],
      [
        "attern",
        -10.253447532653809
      ],
      [
        "▁Any",
        -10.25418472290039
      ],
      [
        "broken",
        -10.254358291625977
      ],
      [
        "rio",
        -10.255105018615723
      ],
      [
        "spring",
        -10.255717277526855
      ],
      [
        "arch",
        -10.255938529968262
      ],
      [
        "▁wheel",
        -10.256159782409668
      ],
      [
        "▁wire",
        -10.257328987121582
      ],
      [
        "▁named",
        -10.257999420166016
      ],
      [
        "▁pitch",
        -10.258216857910156
      ],
      [
        "är",
        -10.258387565612793
      ],
      [
        "▁Min",
        -10.258625030517578
      ],
      [
        "▁Cause",
        -10.25888729095459
      ],
      [
        "▁Sure",
        -10.259203910827637
      ],
      [
        "iption",
        -10.259281158447266
      ],
      [
        "remely",
        -10.260855674743652
      ],
      [
        "▁taste",
        -10.26113510131836
      ],
      [
        "▁spoke",
        -10.261466979980469
      ],
      [
        "▁prop",
        -10.261953353881836
      ],
      [
        "origin",
        -10.262539863586426
      ],
      [
        "lia",
        -10.26313304901123
      ],
      [
        "▁advan",
        -10.263461112976074
      ],
      [
        "▁fail",
        -10.263720512390137
      ],
      [
        "▁cup",
        -10.264583587646484
      ],
      [
        "leased",
        -10.264592170715332
      ],
      [
        "ulous",
        -10.265219688415527
      ],
      [
        "▁sand",
        -10.26540756225586
      ],
      [
        "formed",
        -10.265471458435059
      ],
      [
        "▁avoid",
        -10.26623249053955
      ],
      [
        "▁Will",
        -10.266727447509766
      ],
      [
        "signed",
        -10.266907691955566
      ],
      [
        "▁cash",
        -10.267955780029297
      ],
      [
        "stitu",
        -10.268619537353516
      ],
      [
        "right",
        -10.269811630249023
      ],
      [
        "▁held",
        -10.27235221862793
      ],
      [
        "▁leav",
        -10.272955894470215
      ],
      [
        "lesson",
        -10.27365779876709
      ],
      [
        "ommand",
        -10.273760795593262
      ],
      [
        "▁damn",
        -10.274020195007324
      ],
      [
        "▁Bro",
        -10.274316787719727
      ],
      [
        "gress",
        -10.274532318115234
      ],
      [
        "▁metal",
        -10.274605751037598
      ],
      [
        "bright",
        -10.27560043334961
      ],
      [
        "▁gold",
        -10.27669620513916
      ],
      [
        "▁hum",
        -10.277426719665527
      ],
      [
        "▁batte",
        -10.277641296386719
      ],
      [
        "script",
        -10.278361320495605
      ],
      [
        "▁tiny",
        -10.279881477355957
      ],
      [
        "▁Does",
        -10.280011177062988
      ],
      [
        "▁Apple",
        -10.280108451843262
      ],
      [
        "die",
        -10.280220031738281
      ],
      [
        "▁flip",
        -10.281213760375977
      ],
      [
        "app",
        -10.28146743774414
      ],
      [
        "profit",
        -10.281745910644531
      ],
      [
        "▁Chi",
        -10.285748481750488
      ],
      [
        "▁Peter",
        -10.28698444366455
      ],
      [
        "modern",
        -10.287701606750488
      ],
      [
        "▁egg",
        -10.28785514831543
      ],
      [
        "▁wine",
        -10.288445472717285
      ],
      [
        "▁initi",
        -10.288498878479004
      ],
      [
        "ndemic",
        -10.289203643798828
      ],
      [
        "र",
        -10.289246559143066
      ],
      [
        "▁none",
        -10.289361000061035
      ],
      [
        "econom",
        -10.289778709411621
      ],
      [
        "▁Take",
        -10.290480613708496
      ],
      [
        "ctive",
        -10.291156768798828
      ],
      [
        "nimals",
        -10.291191101074219
      ],
      [
        "ruggle",
        -10.291882514953613
      ],
      [
        "combin",
        -10.292776107788086
      ],
      [
        "nected",
        -10.2930326461792
      ],
      [
        "▁defen",
        -10.293577194213867
      ],
      [
        "▁knock",
        -10.293991088867188
      ],
      [
        "▁Holy",
        -10.295110702514648
      ],
      [
        "▁mode",
        -10.295365333557129
      ],
      [
        "▁promo",
        -10.295403480529785
      ],
      [
        "damage",
        -10.295553207397461
      ],
      [
        "▁execu",
        -10.296518325805664
      ],
      [
        "animal",
        -10.297408103942871
      ],
      [
        "ose",
        -10.297662734985352
      ],
      [
        "▁engag",
        -10.298096656799316
      ],
      [
        "▁boat",
        -10.298218727111816
      ],
      [
        "▁capit",
        -10.298249244689941
      ],
      [
        "▁solid",
        -10.29934024810791
      ],
      [
        "wr",
        -10.300436019897461
      ],
      [
        "gra",
        -10.301482200622559
      ],
      [
        "former",
        -10.30164909362793
      ],
      [
        "word",
        -10.302098274230957
      ],
      [
        "field",
        -10.303442001342773
      ],
      [
        "ص",
        -10.303881645202637
      ],
      [
        "▁manu",
        -10.30394458770752
      ],
      [
        "п",
        -10.303946495056152
      ],
      [
        "oncern",
        -10.304476737976074
      ],
      [
        "▁China",
        -10.304566383361816
      ],
      [
        "▁Once",
        -10.305680274963379
      ],
      [
        "elle",
        -10.307352066040039
      ],
      [
        "receiv",
        -10.30764389038086
      ],
      [
        "▁impro",
        -10.307794570922852
      ],
      [
        "к",
        -10.309157371520996
      ],
      [
        "fri",
        -10.30974006652832
      ],
      [
        "▁milit",
        -10.310173034667969
      ],
      [
        "▁sum",
        -10.310725212097168
      ],
      [
        "ط",
        -10.31165885925293
      ],
      [
        "ال",
        -10.311917304992676
      ],
      [
        "▁influ",
        -10.311981201171875
      ],
      [
        "نا",
        -10.312116622924805
      ],
      [
        "device",
        -10.312660217285156
      ],
      [
        "▁alive",
        -10.313037872314453
      ],
      [
        "venue",
        -10.313447952270508
      ],
      [
        "▁frequ",
        -10.314738273620605
      ],
      [
        "▁holi",
        -10.314741134643555
      ],
      [
        "uk",
        -10.314929962158203
      ],
      [
        "▁weak",
        -10.315044403076172
      ],
      [
        "▁pet",
        -10.315558433532715
      ],
      [
        "demand",
        -10.316438674926758
      ],
      [
        "▁busy",
        -10.316550254821777
      ],
      [
        "belief",
        -10.31677532196045
      ],
      [
        "murder",
        -10.31706428527832
      ],
      [
        "▁suit",
        -10.31763744354248
      ],
      [
        "well",
        -10.317720413208008
      ],
      [
        "▁Ken",
        -10.317827224731445
      ],
      [
        "▁worri",
        -10.318060874938965
      ],
      [
        "▁Very",
        -10.318219184875488
      ],
      [
        "give",
        -10.318511009216309
      ],
      [
        "▁sky",
        -10.319262504577637
      ],
      [
        "ppy",
        -10.31951904296875
      ],
      [
        "creas",
        -10.319866180419922
      ],
      [
        "law",
        -10.319890022277832
      ],
      [
        "troduc",
        -10.322098731994629
      ],
      [
        "▁hunt",
        -10.322113990783691
      ],
      [
        "▁descr",
        -10.322768211364746
      ],
      [
        "än",
        -10.325050354003906
      ],
      [
        "ette",
        -10.32651138305664
      ],
      [
        "reneur",
        -10.326530456542969
      ],
      [
        "▁Charl",
        -10.327561378479004
      ],
      [
        "opular",
        -10.328202247619629
      ],
      [
        "urance",
        -10.3295316696167
      ],
      [
        "miliar",
        -10.329680442810059
      ],
      [
        "repeat",
        -10.329800605773926
      ],
      [
        "Please",
        -10.329964637756348
      ],
      [
        "ese",
        -10.330385208129883
      ],
      [
        "▁seri",
        -10.330881118774414
      ],
      [
        "ection",
        -10.330907821655273
      ],
      [
        "ase",
        -10.332832336425781
      ],
      [
        "quest",
        -10.332897186279297
      ],
      [
        "▁added",
        -10.333372116088867
      ],
      [
        "▁quiet",
        -10.334416389465332
      ],
      [
        "alance",
        -10.334856986999512
      ],
      [
        "X",
        -10.336480140686035
      ],
      [
        "iff",
        -10.337349891662598
      ],
      [
        "ush",
        -10.337737083435059
      ],
      [
        "shirt",
        -10.33786392211914
      ],
      [
        "ession",
        -10.340350151062012
      ],
      [
        "▁rough",
        -10.341065406799316
      ],
      [
        "variou",
        -10.341761589050293
      ],
      [
        "method",
        -10.342447280883789
      ],
      [
        "▁Love",
        -10.342713356018066
      ],
      [
        "female",
        -10.343212127685547
      ],
      [
        "▁gosh",
        -10.34376335144043
      ],
      [
        "hedule",
        -10.3438081741333
      ],
      [
        "▁kilo",
        -10.344195365905762
      ],
      [
        "aurant",
        -10.34428882598877
      ],
      [
        "istent",
        -10.344655990600586
      ],
      [
        "ercise",
        -10.3452730178833
      ],
      [
        "า",
        -10.3452787399292
      ],
      [
        "stupid",
        -10.34537410736084
      ],
      [
        "▁shock",
        -10.345527648925781
      ],
      [
        "▁Big",
        -10.345941543579102
      ],
      [
        "decade",
        -10.3471097946167
      ],
      [
        "▁rise",
        -10.347153663635254
      ],
      [
        "▁pleas",
        -10.348209381103516
      ],
      [
        "б",
        -10.348535537719727
      ],
      [
        "▁core",
        -10.348880767822266
      ],
      [
        "▁motor",
        -10.35004711151123
      ],
      [
        "▁Satur",
        -10.350918769836426
      ],
      [
        "▁horri",
        -10.35107707977295
      ],
      [
        "▁func",
        -10.352418899536133
      ],
      [
        "▁squar",
        -10.353026390075684
      ],
      [
        "▁estab",
        -10.353150367736816
      ],
      [
        "▁dry",
        -10.353479385375977
      ],
      [
        "▁fasci",
        -10.354162216186523
      ],
      [
        "▁Super",
        -10.356266021728516
      ],
      [
        "▁angle",
        -10.357160568237305
      ],
      [
        "associ",
        -10.35777759552002
      ],
      [
        "sexual",
        -10.35788631439209
      ],
      [
        "▁Per",
        -10.358599662780762
      ],
      [
        "bri",
        -10.358744621276855
      ],
      [
        "▁raise",
        -10.359526634216309
      ],
      [
        "▁fruit",
        -10.359601974487305
      ],
      [
        "▁layer",
        -10.360115051269531
      ],
      [
        "▁impo",
        -10.36052417755127
      ],
      [
        "▁Cali",
        -10.360697746276855
      ],
      [
        "▁contr",
        -10.361104965209961
      ],
      [
        "▁earn",
        -10.36202621459961
      ],
      [
        "rategy",
        -10.362475395202637
      ],
      [
        "entrep",
        -10.36298942565918
      ],
      [
        "▁Day",
        -10.364472389221191
      ],
      [
        "▁smell",
        -10.364921569824219
      ],
      [
        "Israel",
        -10.365646362304688
      ],
      [
        "▁psych",
        -10.36768627166748
      ],
      [
        "▁regul",
        -10.368138313293457
      ],
      [
        "▁expos",
        -10.368258476257324
      ],
      [
        "book",
        -10.36933422088623
      ],
      [
        "▁poten",
        -10.370589256286621
      ],
      [
        "truggl",
        -10.371207237243652
      ],
      [
        "ч",
        -10.37166976928711
      ],
      [
        "▁wake",
        -10.37192153930664
      ],
      [
        "oducts",
        -10.37213134765625
      ],
      [
        "pho",
        -10.374445915222168
      ],
      [
        "▁famil",
        -10.37486457824707
      ],
      [
        "з",
        -10.375049591064453
      ],
      [
        "▁chem",
        -10.375420570373535
      ],
      [
        "Y",
        -10.375645637512207
      ],
      [
        "phone",
        -10.375679969787598
      ],
      [
        "mechan",
        -10.376375198364258
      ],
      [
        "chi",
        -10.37645435333252
      ],
      [
        "commun",
        -10.376762390136719
      ],
      [
        "ceived",
        -10.377518653869629
      ],
      [
        "ν",
        -10.37844181060791
      ],
      [
        "vestig",
        -10.378660202026367
      ],
      [
        "verse",
        -10.378804206848145
      ],
      [
        "aries",
        -10.380276679992676
      ],
      [
        "▁Miss",
        -10.38051700592041
      ],
      [
        "sponsi",
        -10.38076400756836
      ],
      [
        "eign",
        -10.381153106689453
      ],
      [
        "▁plug",
        -10.381563186645508
      ],
      [
        "▁plate",
        -10.382637977600098
      ],
      [
        "closer",
        -10.383174896240234
      ],
      [
        "omplex",
        -10.383233070373535
      ],
      [
        "▁honor",
        -10.38416862487793
      ],
      [
        "tific",
        -10.384209632873535
      ],
      [
        "▁cloud",
        -10.384445190429688
      ],
      [
        "Number",
        -10.384780883789062
      ],
      [
        "wel",
        -10.384953498840332
      ],
      [
        "ydd",
        -10.386923789978027
      ],
      [
        "ы",
        -10.387308120727539
      ],
      [
        "▁scar",
        -10.387858390808105
      ],
      [
        "▁odd",
        -10.387920379638672
      ],
      [
        "mula",
        -10.389065742492676
      ],
      [
        "power",
        -10.389567375183105
      ],
      [
        "▁carri",
        -10.39055347442627
      ],
      [
        "fault",
        -10.3911714553833
      ],
      [
        "▁Matt",
        -10.391336441040039
      ],
      [
        "▁lady",
        -10.391399383544922
      ],
      [
        "rupt",
        -10.391622543334961
      ],
      [
        "nating",
        -10.391939163208008
      ],
      [
        "▁shout",
        -10.39336109161377
      ],
      [
        "tudent",
        -10.393732070922852
      ],
      [
        "▁crowd",
        -10.394848823547363
      ],
      [
        "▁Most",
        -10.394868850708008
      ],
      [
        "Monday",
        -10.394881248474121
      ],
      [
        "Spirit",
        -10.39541244506836
      ],
      [
        "▁Hello",
        -10.395712852478027
      ],
      [
        "▁Two",
        -10.396139144897461
      ],
      [
        "▁vol",
        -10.396318435668945
      ],
      [
        "urious",
        -10.39686107635498
      ],
      [
        "ria",
        -10.398846626281738
      ],
      [
        "▁tea",
        -10.399087905883789
      ],
      [
        "prised",
        -10.399940490722656
      ],
      [
        "tively",
        -10.401432037353516
      ],
      [
        "random",
        -10.402119636535645
      ],
      [
        "▁Mary",
        -10.402578353881836
      ],
      [
        "chieve",
        -10.402902603149414
      ],
      [
        "fornia",
        -10.403154373168945
      ],
      [
        "▁cheap",
        -10.403660774230957
      ],
      [
        "▁trail",
        -10.404324531555176
      ],
      [
        "string",
        -10.405130386352539
      ],
      [
        "seemed",
        -10.4053373336792
      ],
      [
        "▁staff",
        -10.405632972717285
      ],
      [
        "motion",
        -10.405681610107422
      ],
      [
        "ما",
        -10.405778884887695
      ],
      [
        "ttempt",
        -10.406728744506836
      ],
      [
        "stern",
        -10.408076286315918
      ],
      [
        "▁giant",
        -10.410100936889648
      ],
      [
        "alist",
        -10.410428047180176
      ],
      [
        "lated",
        -10.410513877868652
      ],
      [
        "▁Cu",
        -10.410820960998535
      ],
      [
        "▁Bri",
        -10.410855293273926
      ],
      [
        "uppose",
        -10.411734580993652
      ],
      [
        "น",
        -10.412208557128906
      ],
      [
        "▁Japan",
        -10.412674903869629
      ],
      [
        "oncept",
        -10.413311958312988
      ],
      [
        "flight",
        -10.413581848144531
      ],
      [
        "cting",
        -10.413604736328125
      ],
      [
        "▁guard",
        -10.41398811340332
      ],
      [
        "▁emerg",
        -10.414094924926758
      ],
      [
        "house",
        -10.415946006774902
      ],
      [
        "▁Rob",
        -10.416576385498047
      ],
      [
        "▁spa",
        -10.416584014892578
      ],
      [
        "imagin",
        -10.417609214782715
      ],
      [
        "ontext",
        -10.417627334594727
      ],
      [
        "ji",
        -10.418004989624023
      ],
      [
        "▁vill",
        -10.418045043945312
      ],
      [
        "▁freak",
        -10.418855667114258
      ],
      [
        "▁winn",
        -10.420063018798828
      ],
      [
        "recent",
        -10.420376777648926
      ],
      [
        "lish",
        -10.42226791381836
      ],
      [
        "อ",
        -10.423386573791504
      ],
      [
        "improv",
        -10.424089431762695
      ],
      [
        "â",
        -10.42435359954834
      ],
      [
        "lac",
        -10.424939155578613
      ],
      [
        "spite",
        -10.426549911499023
      ],
      [
        "▁snow",
        -10.427319526672363
      ],
      [
        "▁Today",
        -10.431661605834961
      ],
      [
        "memory",
        -10.431905746459961
      ],
      [
        "▁loud",
        -10.434752464294434
      ],
      [
        "dinner",
        -10.435269355773926
      ],
      [
        "Listen",
        -10.435942649841309
      ],
      [
        "pha",
        -10.436092376708984
      ],
      [
        "▁vehic",
        -10.436552047729492
      ],
      [
        "neath",
        -10.436726570129395
      ],
      [
        "phi",
        -10.437564849853516
      ],
      [
        "expand",
        -10.437565803527832
      ],
      [
        "critic",
        -10.437944412231445
      ],
      [
        "nnounc",
        -10.438097953796387
      ],
      [
        "▁Ste",
        -10.438520431518555
      ],
      [
        "lastic",
        -10.439834594726562
      ],
      [
        "ware",
        -10.441667556762695
      ],
      [
        "▁Mil",
        -10.441893577575684
      ],
      [
        "▁assum",
        -10.442011833190918
      ],
      [
        "▁screw",
        -10.442163467407227
      ],
      [
        "taught",
        -10.442934036254883
      ],
      [
        "scope",
        -10.44521713256836
      ],
      [
        "tists",
        -10.445639610290527
      ],
      [
        "estate",
        -10.446050643920898
      ],
      [
        "▁alter",
        -10.447250366210938
      ],
      [
        "bol",
        -10.447257995605469
      ],
      [
        "▁proud",
        -10.448360443115234
      ],
      [
        "▁chain",
        -10.448383331298828
      ],
      [
        "prison",
        -10.448729515075684
      ],
      [
        "▁retir",
        -10.449239730834961
      ],
      [
        "▁crit",
        -10.449372291564941
      ],
      [
        "except",
        -10.449457168579102
      ],
      [
        "▁fuel",
        -10.44961166381836
      ],
      [
        "▁era",
        -10.449820518493652
      ],
      [
        "raised",
        -10.450366020202637
      ],
      [
        "▁unive",
        -10.45085620880127
      ],
      [
        "lliant",
        -10.452255249023438
      ],
      [
        "وا",
        -10.4528169631958
      ],
      [
        "ndo",
        -10.453935623168945
      ],
      [
        "נ",
        -10.454459190368652
      ],
      [
        "▁tear",
        -10.454872131347656
      ],
      [
        "tuniti",
        -10.455232620239258
      ],
      [
        "ronic",
        -10.455567359924316
      ],
      [
        "supply",
        -10.455918312072754
      ],
      [
        "illa",
        -10.456318855285645
      ],
      [
        "▁adver",
        -10.456907272338867
      ],
      [
        "ymlaen",
        -10.457372665405273
      ],
      [
        "head",
        -10.457986831665039
      ],
      [
        "tretch",
        -10.458090782165527
      ],
      [
        "safety",
        -10.45943832397461
      ],
      [
        "▁Give",
        -10.460541725158691
      ],
      [
        "dibly",
        -10.46263313293457
      ],
      [
        "▁copy",
        -10.46278190612793
      ],
      [
        "fourth",
        -10.463149070739746
      ],
      [
        "ensive",
        -10.463319778442383
      ],
      [
        "ognize",
        -10.463507652282715
      ],
      [
        "mpaign",
        -10.463955879211426
      ],
      [
        "▁judge",
        -10.464116096496582
      ],
      [
        "▁Make",
        -10.464287757873535
      ],
      [
        "like",
        -10.465320587158203
      ],
      [
        "▁trial",
        -10.465615272521973
      ],
      [
        "▁firm",
        -10.465628623962402
      ],
      [
        "▁för",
        -10.465923309326172
      ],
      [
        "▁math",
        -10.466601371765137
      ],
      [
        "▁medit",
        -10.468025207519531
      ],
      [
        "revent",
        -10.46819019317627
      ],
      [
        "▁tank",
        -10.469042778015137
      ],
      [
        "hicken",
        -10.46916675567627
      ],
      [
        "artist",
        -10.469673156738281
      ],
      [
        "tellig",
        -10.471722602844238
      ],
      [
        "▁bone",
        -10.471781730651855
      ],
      [
        "applic",
        -10.47205924987793
      ],
      [
        "commit",
        -10.472993850708008
      ],
      [
        "▁happi",
        -10.473943710327148
      ],
      [
        "bottle",
        -10.474286079406738
      ],
      [
        "▁House",
        -10.4756441116333
      ],
      [
        "▁virtu",
        -10.475837707519531
      ],
      [
        "▁seek",
        -10.476916313171387
      ],
      [
        "▁zone",
        -10.47781753540039
      ],
      [
        "mitted",
        -10.478500366210938
      ],
      [
        "▁Steve",
        -10.479057312011719
      ],
      [
        "ör",
        -10.479596138000488
      ],
      [
        "larger",
        -10.480365753173828
      ],
      [
        "▁mynd",
        -10.480977058410645
      ],
      [
        "ے",
        -10.482012748718262
      ],
      [
        "▁evil",
        -10.483011245727539
      ],
      [
        "▁Ze",
        -10.483084678649902
      ],
      [
        "istake",
        -10.48376750946045
      ],
      [
        "ê",
        -10.483776092529297
      ],
      [
        "vy",
        -10.483809471130371
      ],
      [
        "—",
        -10.484145164489746
      ],
      [
        "▁While",
        -10.486205101013184
      ],
      [
        "stall",
        -10.486210823059082
      ],
      [
        "reveal",
        -10.486494064331055
      ],
      [
        "timate",
        -10.486796379089355
      ],
      [
        "▁grace",
        -10.487192153930664
      ],
      [
        "▁crack",
        -10.487761497497559
      ],
      [
        "▁Tu",
        -10.488630294799805
      ],
      [
        "▁dda",
        -10.488792419433594
      ],
      [
        "weapon",
        -10.488797187805176
      ],
      [
        "▁equa",
        -10.489641189575195
      ],
      [
        "▁male",
        -10.49160385131836
      ],
      [
        "▁agent",
        -10.492493629455566
      ],
      [
        "prayer",
        -10.493410110473633
      ],
      [
        "quence",
        -10.495377540588379
      ],
      [
        "▁tired",
        -10.496092796325684
      ],
      [
        "▁relax",
        -10.496841430664062
      ],
      [
        "ponsor",
        -10.496971130371094
      ],
      [
        "George",
        -10.4976224899292
      ],
      [
        "covery",
        -10.49836540222168
      ],
      [
        "▁Tell",
        -10.498878479003906
      ],
      [
        "▁Men",
        -10.498988151550293
      ],
      [
        "burg",
        -10.499070167541504
      ],
      [
        "▁smile",
        -10.499298095703125
      ],
      [
        "▁Hall",
        -10.499497413635254
      ],
      [
        "▁drama",
        -10.501380920410156
      ],
      [
        "▁twice",
        -10.501627922058105
      ],
      [
        "▁basis",
        -10.502786636352539
      ],
      [
        "لا",
        -10.502843856811523
      ],
      [
        "phe",
        -10.503973007202148
      ],
      [
        "▁shoe",
        -10.504322052001953
      ],
      [
        "▁trigg",
        -10.504695892333984
      ],
      [
        "studio",
        -10.504886627197266
      ],
      [
        "▁في",
        -10.505846977233887
      ],
      [
        "update",
        -10.50634479522705
      ],
      [
        "▁Time",
        -10.506872177124023
      ],
      [
        "cc",
        -10.507535934448242
      ],
      [
        "▁pair",
        -10.507863998413086
      ],
      [
        "ifica",
        -10.508064270019531
      ],
      [
        "conven",
        -10.508258819580078
      ],
      [
        "▁legal",
        -10.508530616760254
      ],
      [
        "instru",
        -10.50997257232666
      ],
      [
        "biliti",
        -10.510305404663086
      ],
      [
        "oli",
        -10.510422706604004
      ],
      [
        "ticket",
        -10.511330604553223
      ],
      [
        "▁draft",
        -10.511741638183594
      ],
      [
        "Really",
        -10.513991355895996
      ],
      [
        "▁crime",
        -10.514695167541504
      ],
      [
        "!\"",
        -10.515329360961914
      ],
      [
        "▁calm",
        -10.516790390014648
      ],
      [
        "zo",
        -10.517613410949707
      ],
      [
        "▁react",
        -10.517938613891602
      ],
      [
        "▁edit",
        -10.518258094787598
      ],
      [
        "▁audio",
        -10.520017623901367
      ],
      [
        "▁legi",
        -10.520306587219238
      ],
      [
        "▁Gar",
        -10.520743370056152
      ],
      [
        "adjust",
        -10.52094841003418
      ],
      [
        "▁truck",
        -10.521756172180176
      ],
      [
        "French",
        -10.523289680480957
      ],
      [
        "ville",
        -10.523869514465332
      ],
      [
        "▁orbit",
        -10.524456977844238
      ],
      [
        "Amazon",
        -10.524479866027832
      ],
      [
        "▁Han",
        -10.525338172912598
      ],
      [
        "visual",
        -10.526057243347168
      ],
      [
        "▁Alex",
        -10.527277946472168
      ],
      [
        "flect",
        -10.527393341064453
      ],
      [
        "ddy",
        -10.527634620666504
      ],
      [
        "▁UK",
        -10.527807235717773
      ],
      [
        "▁task",
        -10.528364181518555
      ],
      [
        "afford",
        -10.528529167175293
      ],
      [
        "▁gear",
        -10.529349327087402
      ],
      [
        "slowly",
        -10.529826164245605
      ],
      [
        "basket",
        -10.53076171875
      ],
      [
        "mwneud",
        -10.53091049194336
      ],
      [
        "▁iron",
        -10.53134822845459
      ],
      [
        "è",
        -10.531427383422852
      ],
      [
        "▁thick",
        -10.531728744506836
      ],
      [
        "teen",
        -10.531805992126465
      ],
      [
        "▁syn",
        -10.532490730285645
      ],
      [
        "▁pump",
        -10.53270435333252
      ],
      [
        "▁Sorry",
        -10.533560752868652
      ],
      [
        "▁purch",
        -10.5335693359375
      ],
      [
        "bby",
        -10.533907890319824
      ],
      [
        "▁lucky",
        -10.534551620483398
      ],
      [
        "▁Rich",
        -10.535158157348633
      ],
      [
        "▁net",
        -10.535989761352539
      ],
      [
        "▁Next",
        -10.536017417907715
      ],
      [
        "London",
        -10.53614616394043
      ],
      [
        "carbon",
        -10.536320686340332
      ],
      [
        "▁meat",
        -10.536458969116211
      ],
      [
        "point",
        -10.536999702453613
      ],
      [
        "▁sir",
        -10.537755012512207
      ],
      [
        "bodies",
        -10.539311408996582
      ],
      [
        "muscle",
        -10.539559364318848
      ],
      [
        "etic",
        -10.540706634521484
      ],
      [
        "▁mask",
        -10.542184829711914
      ],
      [
        "lusion",
        -10.542276382446289
      ],
      [
        "▁caus",
        -10.542645454406738
      ],
      [
        "▁equip",
        -10.542759895324707
      ],
      [
        "eating",
        -10.545016288757324
      ],
      [
        "▁Bob",
        -10.545037269592285
      ],
      [
        "▁effic",
        -10.54571533203125
      ],
      [
        "ار",
        -10.546808242797852
      ],
      [
        "▁chair",
        -10.549225807189941
      ],
      [
        "▁bath",
        -10.550677299499512
      ],
      [
        "minist",
        -10.550804138183594
      ],
      [
        "histor",
        -10.551228523254395
      ],
      [
        "▁frust",
        -10.551602363586426
      ],
      [
        "global",
        -10.552578926086426
      ],
      [
        "signal",
        -10.552810668945312
      ],
      [
        "▁judg",
        -10.553674697875977
      ],
      [
        ":",
        -10.555337905883789
      ],
      [
        "orship",
        -10.558013916015625
      ],
      [
        "▁Would",
        -10.558074951171875
      ],
      [
        "ם",
        -10.558472633361816
      ],
      [
        "▁Ah",
        -10.558693885803223
      ],
      [
        "▁blog",
        -10.558697700500488
      ],
      [
        "▁river",
        -10.56008243560791
      ],
      [
        "▁prepa",
        -10.560263633728027
      ],
      [
        "ü",
        -10.560462951660156
      ],
      [
        "entral",
        -10.560786247253418
      ],
      [
        "्",
        -10.562368392944336
      ],
      [
        "filled",
        -10.562837600708008
      ],
      [
        "native",
        -10.563020706176758
      ],
      [
        "depart",
        -10.564236640930176
      ],
      [
        "hoping",
        -10.564261436462402
      ],
      [
        "ritish",
        -10.567056655883789
      ],
      [
        "▁India",
        -10.567224502563477
      ],
      [
        "▁ocean",
        -10.568563461303711
      ],
      [
        "▁luck",
        -10.569059371948242
      ],
      [
        "▁sugar",
        -10.569547653198242
      ],
      [
        "gather",
        -10.569740295410156
      ],
      [
        "▁quant",
        -10.570094108581543
      ],
      [
        "▁rare",
        -10.570295333862305
      ],
      [
        "vous",
        -10.570857048034668
      ],
      [
        "vid",
        -10.571303367614746
      ],
      [
        "faster",
        -10.57193374633789
      ],
      [
        "mail",
        -10.572575569152832
      ],
      [
        "▁gradu",
        -10.572944641113281
      ],
      [
        "manage",
        -10.574678421020508
      ],
      [
        "▁map",
        -10.576395988464355
      ],
      [
        "nxiety",
        -10.57663345336914
      ],
      [
        "volve",
        -10.577160835266113
      ],
      [
        "न",
        -10.577399253845215
      ],
      [
        "nearly",
        -10.57783317565918
      ],
      [
        "ercial",
        -10.578917503356934
      ],
      [
        "blo",
        -10.579207420349121
      ],
      [
        "dio",
        -10.580347061157227
      ],
      [
        "▁Adam",
        -10.581408500671387
      ],
      [
        "cancer",
        -10.583087921142578
      ],
      [
        "▁survi",
        -10.583209037780762
      ],
      [
        "ambi",
        -10.58334732055664
      ],
      [
        "bridge",
        -10.58411979675293
      ],
      [
        "killed",
        -10.58425521850586
      ],
      [
        "▁Che",
        -10.584539413452148
      ],
      [
        "▁noise",
        -10.587294578552246
      ],
      [
        "▁Unive",
        -10.58737850189209
      ],
      [
        "▁north",
        -10.588005065917969
      ],
      [
        "▁vent",
        -10.58834171295166
      ],
      [
        "ون",
        -10.588705062866211
      ],
      [
        "่",
        -10.589229583740234
      ],
      [
        "▁Texas",
        -10.589641571044922
      ],
      [
        "▁commu",
        -10.589668273925781
      ],
      [
        "ienc",
        -10.590213775634766
      ],
      [
        "garden",
        -10.591288566589355
      ],
      [
        "Father",
        -10.591609954833984
      ],
      [
        "sembl",
        -10.591828346252441
      ],
      [
        "▁invit",
        -10.591954231262207
      ],
      [
        "hand",
        -10.593727111816406
      ],
      [
        "▁AI",
        -10.594749450683594
      ],
      [
        "asi",
        -10.594850540161133
      ],
      [
        "▁Roman",
        -10.595535278320312
      ],
      [
        "▁grate",
        -10.595959663391113
      ],
      [
        "prepar",
        -10.596010208129883
      ],
      [
        "▁hook",
        -10.59783935546875
      ],
      [
        "на",
        -10.598081588745117
      ],
      [
        "▁Obvi",
        -10.598943710327148
      ],
      [
        "eithio",
        -10.599019050598145
      ],
      [
        "limate",
        -10.599762916564941
      ],
      [
        "ublish",
        -10.60051441192627
      ],
      [
        "▁charg",
        -10.60097885131836
      ],
      [
        "▁Wait",
        -10.60296630859375
      ],
      [
        "cia",
        -10.603226661682129
      ],
      [
        "▁Scott",
        -10.603611946105957
      ],
      [
        "quired",
        -10.603901863098145
      ],
      [
        "pared",
        -10.607038497924805
      ],
      [
        "ford",
        -10.607675552368164
      ],
      [
        "excuse",
        -10.608179092407227
      ],
      [
        "▁south",
        -10.608502388000488
      ],
      [
        "▁rush",
        -10.608954429626465
      ],
      [
        "entury",
        -10.60957145690918
      ],
[...]
